▁xxunk	0
▁xxpad	0
▁xxbos	0
▁xxeos	0
▁xxfld	0
▁xxrep	0
▁xxwrep	0
▁xxup	0
▁xxmaj	0
<unk>	0
▁the	-3.28185
.	-3.30086
,	-3.3604
▁and	-3.84078
▁a	-3.84188
s	-3.87329
▁of	-3.95598
▁to	-4.05738
▁is	-4.18961
'	-4.21431
br	-4.3246
▁/>	-4.33984
<	-4.38477
▁in	-4.43867
▁it	-4.55597
▁I	-4.57962
▁that	-4.73407
▁this	-4.8649
▁film	-5.12156
▁was	-5.16283
▁with	-5.19199
▁for	-5.20418
▁movie	-5.21035
ing	-5.22091
▁as	-5.22176
-	-5.23551
▁	-5.30131
t	-5.39454
▁The	-5.40188
▁but	-5.44635
▁on	-5.46871
▁you	-5.49027
▁"	-5.51755
▁(	-5.56546
▁are	-5.5824
▁his	-5.60263
ed	-5.61559
▁be	-5.61803
▁not	-5.65437
▁one	-5.69092
▁have	-5.69849
▁he	-5.72713
ly	-5.77142
▁by	-5.8276
"	-5.83512
▁an	-5.87077
▁who	-5.91145
▁all	-5.94508
▁from	-5.98254
▁at	-5.99775
)	-6.02672
▁has	-6.04304
▁like	-6.13587
▁so	-6.1428
▁they	-6.15052
▁out	-6.16818
▁about	-6.17068
d	-6.17072
▁her	-6.17495
▁It	-6.18684
n	-6.18996
▁very	-6.21363
▁can	-6.25002
▁good	-6.25519
▁more	-6.29292
▁or	-6.29373
!	-6.29581
▁just	-6.35134
▁some	-6.36488
▁time	-6.37629
▁what	-6.37911
▁great	-6.39641
▁This	-6.39894
▁when	-6.42467
▁see	-6.42738
▁my	-6.42765
▁story	-6.43242
▁up	-6.43591
y	-6.45148
The	-6.4551
▁their	-6.49666
▁well	-6.53528
▁would	-6.54272
▁there	-6.55535
▁me	-6.55666
▁will	-6.55998
▁really	-6.57617
▁if	-6.62078
▁had	-6.62786
▁she	-6.64018
▁which	-6.64762
e	-6.67995
▁most	-6.6833
▁A	-6.69756
▁does	-6.71204
▁other	-6.71519
▁much	-6.7346
▁we	-6.73559
▁love	-6.7408
▁were	-6.75088
▁-	-6.75259
▁him	-6.75331
▁only	-6.77738
▁than	-6.79177
▁also	-6.79196
▁first	-6.79351
▁been	-6.82067
▁people	-6.83885
▁best	-6.84336
▁how	-6.84846
▁into	-6.85079
▁no	-6.86027
▁do	-6.8817
...	-6.88938
▁them	-6.89706
▁get	-6.91191
▁way	-6.91417
▁show	-6.92569
?	-6.92627
▁could	-6.9342
▁seen	-6.94138
I	-6.94232
;	-6.94941
▁many	-6.95636
▁because	-6.96494
▁think	-6.96922
▁i	-6.9759
▁even	-6.97993
:	-6.98183
▁life	-6.99392
▁watch	-6.9982
▁made	-7.0049
▁films	-7.0251
m	-7.02795
▁characters	-7.03661
▁make	-7.04762
er	-7.05723
▁character	-7.05791
▁never	-7.06518
▁movies	-7.06739
ve	-7.09535
▁too	-7.09709
▁over	-7.11415
▁being	-7.1238
▁He	-7.13091
▁know	-7.13667
▁But	-7.14655
▁two	-7.15761
▁'	-7.15896
▁any	-7.16589
▁its	-7.16835
▁after	-7.17197
).	-7.18464
▁don	-7.1891
▁still	-7.19367
▁little	-7.20106
▁lot	-7.20864
▁did	-7.21143
▁give	-7.21192
▁And	-7.23147
▁ever	-7.23257
▁end	-7.23447
▁<	-7.23868
▁your	-7.2507
▁where	-7.25222
▁man	-7.25364
▁find	-7.26268
▁then	-7.27299
▁In	-7.28365
▁years	-7.29711
▁come	-7.31089
▁say	-7.32368
▁plot	-7.3401
),	-7.35817
▁go	-7.37471
▁acting	-7.37691
a	-7.38249
▁scenes	-7.38356
▁better	-7.40265
▁back	-7.40288
▁something	-7.41487
▁real	-7.41614
▁scene	-7.41877
▁those	-7.42086
▁should	-7.43512
▁makes	-7.43831
▁cast	-7.44028
▁before	-7.46158
▁work	-7.47429
▁want	-7.47984
▁through	-7.49068
▁these	-7.49204
▁There	-7.49334
▁quite	-7.49747
re	-7.50245
/	-7.50712
▁same	-7.50747
▁world	-7.52797
▁young	-7.53107
▁such	-7.53123
▁part	-7.53318
▁funny	-7.53459
▁own	-7.54572
▁actors	-7.55285
▁saw	-7.56973
▁off	-7.5748
▁here	-7.57586
▁If	-7.57976
▁now	-7.5843
▁music	-7.59067
▁while	-7.59501
▁always	-7.60272
▁performance	-7.61145
▁every	-7.61175
▁watching	-7.61568
▁DVD	-7.62465
▁both	-7.62691
▁though	-7.6288
▁again	-7.63183
▁comedy	-7.6323
▁down	-7.63624
▁look	-7.63749
▁going	-7.63924
▁series	-7.63983
▁long	-7.6487
▁another	-7.66294
▁may	-7.66299
▁things	-7.67865
▁old	-7.68291
▁family	-7.68668
▁between	-7.69072
▁must	-7.69422
and	-7.70287
▁us	-7.70555
▁thing	-7.70725
▁fun	-7.71109
▁right	-7.71812
▁try	-7.71987
▁new	-7.72062
▁feel	-7.72265
▁excellent	-7.72408
▁bad	-7.73149
▁our	-7.73618
es	-7.7403
▁director	-7.74135
▁bit	-7.74278
▁fact	-7.74561
the	-7.74994
▁few	-7.75297
▁action	-7.76308
▁done	-7.76857
ll	-7.77375
▁thought	-7.77567
▁TV	-7.77923
▁got	-7.78083
▁far	-7.79294
▁actually	-7.80643
▁role	-7.80791
▁S	-7.81259
▁seems	-7.81379
▁take	-7.81986
▁horror	-7.82881
▁each	-7.83326
▁didn	-7.83721
▁shows	-7.83724
▁kind	-7.83767
▁around	-7.84287
▁wonderful	-7.84774
▁times	-7.85086
▁found	-7.85663
&	-7.86131
▁enough	-7.86142
A	-7.86495
▁She	-7.86577
▁am	-7.86661
▁different	-7.87738
▁beautiful	-7.87759
▁without	-7.87783
▁last	-7.88083
▁You	-7.88152
▁job	-7.88507
▁interesting	-7.88725
l	-7.88952
▁put	-7.90793
▁They	-7.90998
al	-7.91429
▁watched	-7.91907
▁As	-7.91973
This	-7.91991
▁pretty	-7.92554
▁true	-7.92562
▁why	-7.93075
▁original	-7.93566
▁enjoy	-7.93702
on	-7.93828
▁worth	-7.95479
▁tell	-7.95641
▁gets	-7.95664
▁whole	-7.95757
▁yet	-7.97255
".	-7.97751
▁course	-7.9777
▁day	-7.97937
▁un	-7.97942
▁hard	-7.98242
▁seem	-7.98415
in	-7.98863
▁main	-7.9932
▁short	-7.99656
▁since	-7.99885
▁big	-8.00774
▁play	-8.0079
▁screen	-8.00814
▁recommend	-8.01791
th	-8.02185
▁American	-8.02497
▁C	-8.02991
▁plays	-8.03108
▁ending	-8.03546
▁might	-8.03679
▁fan	-8.03961
▁anyone	-8.04048
--	-8.04666
▁together	-8.06139
▁least	-8.06155
▁set	-8.06336
▁during	-8.0792
▁away	-8.08232
▁himself	-8.08518
(	-8.09091
▁played	-8.09591
▁later	-8.09736
▁nothing	-8.1031
▁place	-8.10355
▁woman	-8.10941
▁especially	-8.11009
▁classic	-8.11098
▁perfect	-8.1186
▁point	-8.12235
▁turn	-8.12274
se	-8.12289
o	-8.13016
▁One	-8.13029
lmost	-8.1317
▁actor	-8.13323
▁making	-8.13527
▁takes	-8.13701
",	-8.14108
▁sure	-8.15008
▁probably	-8.15324
▁performances	-8.15623
▁girl	-8.15856
▁anything	-8.15965
▁D	-8.16425
▁B	-8.16595
▁everyone	-8.16618
▁keep	-8.16632
▁loved	-8.16837
▁year	-8.17228
▁home	-8.17935
▁For	-8.18239
or	-8.19042
▁war	-8.19243
▁used	-8.19295
▁believe	-8.19378
▁mind	-8.19384
▁moments	-8.19587
▁book	-8.19629
▁entertaining	-8.19931
▁nice	-8.20261
▁rather	-8.20556
▁When	-8.21344
S	-8.22491
▁three	-8.22595
▁definitely	-8.22613
▁everything	-8.22615
▁high	-8.22971
It	-8.22993
▁That	-8.23404
▁once	-8.2357
▁Not	-8.24448
▁mother	-8.24702
▁understand	-8.24828
▁We	-8.25373
▁lead	-8.25613
▁amazing	-8.25775
▁seeing	-8.25872
▁help	-8.2593
▁along	-8.26202
▁Hollywood	-8.26821
▁wife	-8.26825
▁won	-8.26854
▁audience	-8.26908
▁goes	-8.2693
▁truly	-8.27526
▁said	-8.27528
able	-8.27738
▁My	-8.27878
▁What	-8.27971
▁children	-8.28253
▁came	-8.28423
▁So	-8.28594
▁kids	-8.30118
▁friends	-8.30519
▁John	-8.30547
▁episode	-8.30648
▁looking	-8.30774
▁remember	-8.30847
▁under	-8.30922
▁M	-8.30934
▁E	-8.30965
▁effects	-8.31016
▁script	-8.31137
▁hav	-8.31199
▁small	-8.31205
▁left	-8.31205
▁shot	-8.31461
▁let	-8.31798
▁sense	-8.32051
▁often	-8.32075
▁human	-8.32147
▁live	-8.32495
▁second	-8.32894
▁Mr	-8.33006
r	-8.33498
▁heart	-8.33935
▁need	-8.34609
▁person	-8.34876
▁re	-8.3492
▁read	-8.35825
▁usual	-8.35846
▁P	-8.36172
▁brilliant	-8.36282
▁school	-8.36618
▁death	-8.36865
▁game	-8.36911
▁face	-8.36967
▁learn	-8.37385
▁someone	-8.37467
▁T	-8.37529
▁night	-8.37698
▁version	-8.37712
."	-8.38626
▁men	-8.38844
▁special	-8.39287
▁strong	-8.3972
▁playing	-8.39785
▁itself	-8.39841
ness	-8.40107
▁style	-8.40182
▁line	-8.40273
▁enjoyed	-8.41183
▁lives	-8.41198
▁father	-8.4147
▁today	-8.41705
▁favorite	-8.41879
▁become	-8.41901
▁bring	-8.43302
▁score	-8.43334
▁2	-8.43731
▁completely	-8.44088
▁hope	-8.44138
st	-8.44399
▁cinema	-8.44472
▁run	-8.44939
▁full	-8.45547
▁picture	-8.45604
▁use	-8.46202
▁simple	-8.46535
▁reason	-8.47027
▁several	-8.47441
▁early	-8.4746
▁certainly	-8.47644
▁others	-8.47759
▁10	-8.47844
▁add	-8.48292
▁however	-8.48362
▁top	-8.48736
▁deal	-8.49492
as	-8.49493
▁guy	-8.49879
▁works	-8.50133
▁less	-8.50173
▁minutes	-8.50665
▁hilarious	-8.50692
▁production	-8.50773
▁dark	-8.50891
an	-8.51047
▁However	-8.51102
▁parts	-8.51888
▁money	-8.51938
▁wants	-8.52177
▁start	-8.52203
▁liked	-8.52358
▁sex	-8.5265
▁All	-8.52745
▁humor	-8.52854
▁beginning	-8.52864
▁camera	-8.53499
▁Some	-8.53552
▁half	-8.53822
▁art	-8.54591
▁L	-8.54647
▁women	-8.54745
▁highly	-8.55167
▁support	-8.55675
ic	-8.55901
▁unti	-8.56254
▁simply	-8.56656
▁While	-8.57734
▁able	-8.57758
ion	-8.58213
▁friend	-8.58215
▁couple	-8.58479
▁throughout	-8.58645
▁His	-8.58684
▁although	-8.58704
▁On	-8.58884
▁getting	-8.59643
▁star	-8.60386
▁else	-8.60595
▁next	-8.60597
▁fine	-8.6073
▁fans	-8.61202
▁No	-8.61352
▁matter	-8.61558
▁sound	-8.61598
▁black	-8.61632
it	-8.62213
▁enjoyable	-8.6268
ce	-8.6329
▁video	-8.63755
▁becomes	-8.64171
▁piece	-8.64771
▁drama	-8.64796
▁laugh	-8.64878
▁looks	-8.65065
▁late	-8.65353
▁genre	-8.65749
▁chance	-8.65765
▁told	-8.65868
▁absolute	-8.65907
▁fall	-8.66286
▁soundtrack	-8.66817
▁cinematography	-8.66824
▁wrong	-8.67543
▁against	-8.67987
i	-8.68242
▁final	-8.68442
▁R	-8.68831
▁--	-8.68866
▁wanted	-8.69063
man	-8.6924
▁days	-8.69869
▁expect	-8.70282
▁viewer	-8.70322
▁dead	-8.70891
If	-8.70912
▁wasn	-8.71011
▁musical	-8.71085
▁experience	-8.71133
▁superb	-8.71199
▁maybe	-8.71225
en	-8.71324
▁turns	-8.72268
▁stuff	-8.72322
▁THE	-8.72386
▁d	-8.72422
▁group	-8.72446
▁relationship	-8.72506
▁head	-8.72561
▁light	-8.72771
▁slow	-8.73154
▁Jack	-8.73451
▁sad	-8.73457
▁romantic	-8.73458
▁called	-8.73846
▁close	-8.73921
▁lines	-8.74037
▁actress	-8.74553
ies	-8.74637
▁David	-8.74644
▁based	-8.7471
▁view	-8.74974
▁G	-8.74975
▁order	-8.75239
▁War	-8.75568
▁To	-8.75571
▁themselves	-8.75761
▁sometimes	-8.7598
▁house	-8.76001
▁H	-8.76634
▁myself	-8.76946
▁quality	-8.7698
▁idea	-8.77153
▁boy	-8.77342
▁mean	-8.77598
tally	-8.78026
▁extreme	-8.78138
▁With	-8.78216
▁released	-8.78314
▁sort	-8.78481
▁soon	-8.78678
▁etc	-8.7927
▁history	-8.79363
ous	-8.79389
▁direction	-8.79555
▁team	-8.7956
▁O	-8.79643
▁guys	-8.79661
▁type	-8.7971
▁At	-8.79913
went	-8.79956
▁roles	-8.79967
▁hold	-8.80474
▁past	-8.80541
▁already	-8.80552
▁self	-8.80554
▁major	-8.80556
▁English	-8.8057
▁lost	-8.80574
▁realistic	-8.80575
est	-8.80894
▁Robert	-8.80954
▁de	-8.80977
▁wish	-8.81203
▁stars	-8.81296
▁care	-8.81439
▁title	-8.81682
▁low	-8.81764
felt	-8.81801
▁finally	-8.82141
▁call	-8.82143
▁case	-8.82183
▁eyes	-8.82252
▁ago	-8.82415
▁side	-8.82446
▁fantastic	-8.83041
▁powerful	-8.83076
Although	-8.83106
▁written	-8.83154
▁3	-8.83302
▁name	-8.8347
▁F	-8.83912
▁important	-8.83983
▁near	-8.84301
▁behind	-8.84302
▁moving	-8.84328
▁exactly	-8.84336
▁either	-8.84345
▁rest	-8.84774
ie	-8.84989
to	-8.85174
less	-8.85223
▁song	-8.85271
▁certain	-8.85279
but	-8.85378
ity	-8.85472
▁gave	-8.85593
▁child	-8.85622
▁hit	-8.85735
▁starts	-8.85874
is	-8.85974
▁daughter	-8.85988
▁parents	-8.86032
▁hand	-8.86081
▁happens	-8.86331
▁trie	-8.86443
▁happen	-8.86553
There	-8.86946
▁took	-8.87026
▁says	-8.87294
▁budget	-8.87302
▁opinion	-8.87392
▁moment	-8.87451
In	-8.87459
▁entire	-8.87881
up	-8.88126
▁writing	-8.88199
▁p	-8.88212
▁French	-8.88238
▁comic	-8.88286
▁reality	-8.88292
▁car	-8.88429
▁number	-8.88792
▁kid	-8.88831
▁feeling	-8.89128
▁miss	-8.89448
▁manage	-8.89851
▁subject	-8.90068
▁copy	-8.90291
le	-8.90429
▁deep	-8.90584
▁Hitchcock	-8.90888
▁documentary	-8.90903
▁happy	-8.90904
▁murder	-8.91036
▁among	-8.91094
▁opening	-8.91427
▁episodes	-8.91916
▁America	-8.92018
▁example	-8.92253
▁stories	-8.92258
▁husband	-8.92281
▁meets	-8.92299
▁James	-8.92335
▁coming	-8.92557
▁open	-8.92745
!!	-8.92759
▁flick	-8.92792
▁brother	-8.92953
▁problem	-8.92974
▁leave	-8.93031
▁wonder	-8.9317
▁television	-8.93654
▁shown	-8.93769
▁Don	-8.943
▁word	-8.94348
▁buy	-8.9452
ish	-8.94794
h	-8.94818
▁doing	-8.95037
▁living	-8.95051
▁easy	-8.95071
▁involved	-8.95136
▁heard	-8.95267
▁release	-8.95617
▁taken	-8.95678
out	-8.95816
▁voice	-8.95828
▁due	-8.96025
▁act	-8.96062
▁finds	-8.96133
▁perhaps	-8.965
▁modern	-8.96508
▁Great	-8.96508
▁somewhat	-8.96536
▁follow	-8.966
▁Of	-8.96605
▁directed	-8.9663
▁Well	-8.96643
▁After	-8.9672
▁dialogue	-8.96998
▁clear	-8.97054
▁perfectly	-8.97204
▁guess	-8.97381
▁huge	-8.9793
▁incredible	-8.98025
T	-8.98056
▁events	-8.98486
▁German	-8.98625
▁New	-8.98675
▁town	-8.98791
▁age	-8.98887
▁similar	-8.994
▁easily	-8.99404
▁believable	-8.99408
▁typical	-8.99421
▁viewing	-8.99437
▁above	-8.99448
▁Michael	-8.99495
▁eye	-9.00203
▁Even	-9.00453
▁serious	-9.00593
▁personal	-9.00642
▁local	-9.00838
▁middle	-9.00897
▁storyline	-9.00961
▁remind	-9.01122
▁consider	-9.01763
us	-9.02114
▁N	-9.0226
▁cool	-9.02286
▁unique	-9.02408
▁memorable	-9.02408
▁yourself	-9.02412
▁beauty	-9.02413
▁Also	-9.02481
▁across	-9.02492
▁co	-9.02618
▁greatest	-9.02622
▁son	-9.02624
▁particularly	-9.02683
▁happened	-9.02824
▁masterpiece	-9.03187
▁hate	-9.03388
▁W	-9.03803
▁t	-9.03888
▁country	-9.03941
▁brought	-9.03947
▁pure	-9.03961
▁atmosphere	-9.03997
▁elements	-9.04817
▁ask	-9.04903
▁Film	-9.0494
What	-9.04945
▁An	-9.04951
▁room	-9.04956
▁sequence	-9.05015
ther	-9.05088
!!!	-9.05282
▁blood	-9.05347
▁known	-9.054
▁	-9.05508
▁famous	-9.05508
▁Now	-9.05654
▁surprised	-9.05697
▁forget	-9.05738
▁doubt	-9.06546
▁stay	-9.06587
▁career	-9.06651
▁knows	-9.06743
▁pull	-9.06903
▁clever	-9.07095
▁alone	-9.07116
▁cannot	-9.0722
▁gore	-9.07416
▁fight	-9.07451
▁words	-9.07838
▁change	-9.08053
who	-9.08153
▁stop	-9.08382
▁difficult	-9.08696
▁violence	-9.08708
▁society	-9.0871
▁contain	-9.08718
,"	-9.09699
▁rent	-9.09861
▁strange	-9.09977
▁emotional	-9.10053
▁viewers	-9.10124
▁ex	-9.10162
▁interest	-9.10231
▁period	-9.10362
▁80	-9.10379
ary	-9.10995
▁songs	-9.11349
▁grow	-9.11359
▁sister	-9.11575
▁message	-9.11598
▁ten	-9.11897
▁attention	-9.12031
▁cop	-9.12266
▁named	-9.12325
▁theme	-9.12378
▁lack	-9.12388
▁Man	-9.12683
one	-9.12758
▁problems	-9.12823
▁pick	-9.13199
▁form	-9.13251
▁power	-9.13263
▁crime	-9.13266
▁includ	-9.1328
▁decide	-9.13548
▁stupid	-9.13708
k	-9.13966
▁non	-9.14463
▁stand	-9.14514
almost	-9.14556
▁talent	-9.14727
ment	-9.14803
▁wouldn	-9.14943
▁haven	-9.14959
▁writer	-9.15244
▁Just	-9.1525
")	-9.15313
▁knew	-9.15434
▁suspense	-9.15438
▁available	-9.15455
▁class	-9.15634
▁deserves	-9.15966
▁upon	-9.16039
▁sets	-9.16339
▁20	-9.16485
You	-9.16618
▁dance	-9.16719
▁novel	-9.16797
D	-9.16867
▁general	-9.16872
▁result	-9.16874
▁Tom	-9.16976
▁evil	-9.17188
▁save	-9.17292
▁within	-9.17299
But	-9.17793
ers	-9.17816
▁needs	-9.18342
▁Dr	-9.18347
▁surprise	-9.18469
▁obvious	-9.18667
▁situation	-9.18709
▁hour	-9.18749
As	-9.18946
▁hear	-9.18962
▁World	-9.18973
▁city	-9.18992
▁throw	-9.19003
▁comments	-9.19088
▁Love	-9.19588
▁tale	-9.2028
▁theater	-9.20559
▁Bill	-9.20681
▁police	-9.20797
▁single	-9.20803
▁outstanding	-9.20804
▁animation	-9.20813
▁four	-9.20819
▁poor	-9.20824
▁mostly	-9.21063
▁keeps	-9.21093
▁older	-9.212
▁touching	-9.21253
▁f	-9.21295
▁leads	-9.22111
▁particular	-9.22333
▁move	-9.22344
▁saying	-9.2247
▁1	-9.22502
▁laughs	-9.2256
▁fast	-9.22561
▁comedies	-9.22644
▁intelligent	-9.22652
▁dancing	-9.22659
▁amount	-9.22667
C	-9.22708
▁killed	-9.22979
▁Who	-9.23011
▁Bo	-9.23678
▁free	-9.24102
▁dream	-9.24265
▁pace	-9.24323
▁thriller	-9.24375
▁caught	-9.24532
kept	-9.24535
▁future	-9.24553
▁creepy	-9.24555
▁British	-9.24557
▁J	-9.24827
▁clearly	-9.24945
▁Her	-9.25653
R	-9.25823
▁means	-9.25934
▁comment	-9.26012
▁previous	-9.26136
▁discover	-9.26206
▁looked	-9.26299
ng	-9.2637
▁social	-9.26485
▁herself	-9.26489
▁white	-9.26555
▁recently	-9.26711
taking	-9.26843
▁acted	-9.27016
▁capture	-9.27785
came	-9.27855
which	-9.27858
▁imagine	-9.28251
▁rate	-9.28365
▁ends	-9.28386
▁Italian	-9.28414
▁instead	-9.2842
▁rich	-9.28425
▁subtle	-9.28426
▁dog	-9.28437
▁Then	-9.28471
▁How	-9.28487
▁stage	-9.2864
like	-9.29335
▁kill	-9.29343
c	-9.29486
▁wait	-9.29512
P	-9.29598
▁8	-9.29826
▁compare	-9.2991
▁meet	-9.29914
My	-9.2999
▁portrayal	-9.30009
▁showing	-9.30087
▁romance	-9.30141
▁feature	-9.30154
▁battle	-9.30282
▁attempt	-9.30355
▁toward	-9.30359
▁bizarre	-9.30402
▁Japanese	-9.30414
▁college	-9.30416
▁admit	-9.30689
old	-9.3072
▁girls	-9.3082
▁overall	-9.31138
▁hero	-9.31285
▁images	-9.31419
▁die	-9.3152
▁mention	-9.31528
▁4	-9.31647
▁working	-9.31792
▁mood	-9.32017
▁appears	-9.32034
▁female	-9.32193
▁Oscar	-9.32278
▁collection	-9.32459
▁mystery	-9.32467
▁Chaplin	-9.32507
▁outside	-9.32617
▁hours	-9.32756
g	-9.33186
▁following	-9.33239
▁question	-9.33559
▁K	-9.33748
▁boys	-9.34002
▁begins	-9.34004
▁truth	-9.344
▁visual	-9.34448
▁b	-9.34462
▁break	-9.34473
▁male	-9.34476
▁review	-9.34482
▁effort	-9.34526
▁dialog	-9.34537
▁Black	-9.3458
▁Mark	-9.34583
▁features	-9.34585
▁Alice	-9.34647
▁cut	-9.34682
of	-9.34802
!)	-9.34946
▁talented	-9.34998
▁trouble	-9.35296
▁started	-9.3536
▁Peter	-9.35617
nother	-9.36244
▁public	-9.36257
▁George	-9.36417
▁realize	-9.36523
▁success	-9.3658
▁touch	-9.36581
▁agree	-9.3666
▁premise	-9.36666
▁terrific	-9.36666
▁chemistry	-9.36673
▁nature	-9.36673
▁solid	-9.36674
▁Paul	-9.36677
*	-9.36716
▁Scott	-9.36725
▁detail	-9.36769
▁filmed	-9.36816
▁Many	-9.36914
▁portrayed	-9.36937
▁focus	-9.37011
▁aren	-9.37193
▁expected	-9.3736
▁material	-9.37424
▁Joe	-9.37499
	-9.37525
▁present	-9.37679
Very	-9.37702
giving	-9.37727
▁train	-9.37788
▁c	-9.37982
▁members	-9.3801
▁beautifully	-9.38052
M	-9.38368
▁control	-9.38595
▁check	-9.38608
▁fair	-9.38823
▁background	-9.38834
▁shame	-9.3884
▁seriously	-9.39303
▁interested	-9.39309
▁sequences	-9.3954
▁Be	-9.39664
▁follows	-9.39783
▁please	-9.40316
▁thinking	-9.40441
ally	-9.40493
▁convincing	-9.40731
▁effective	-9.40742
▁escape	-9.4076
▁pieces	-9.40981
▁era	-9.41048
▁Stewart	-9.41062
▁silent	-9.41062
▁tension	-9.41064
▁popular	-9.41067
▁stunning	-9.41081
▁indeed	-9.41083
▁Richard	-9.41106
▁culture	-9.41131
▁body	-9.41217
▁villain	-9.41253
▁week	-9.41257
!"	-9.41518
▁complete	-9.41657
▁laughing	-9.42219
So	-9.42387
▁recommended	-9.42493
▁William	-9.42759
ation	-9.42894
▁actual	-9.43095
▁gay	-9.43217
▁twist	-9.43219
▁search	-9.43278
▁complex	-9.4332
▁respect	-9.43322
▁beyond	-9.43335
▁married	-9.43347
▁gem	-9.43386
▁Good	-9.43457
▁Most	-9.43495
▁level	-9.43586
▁situations	-9.43673
▁season	-9.43756
▁air	-9.43909
▁missed	-9.43946
▁figure	-9.4413
▁jokes	-9.44536
▁whe	-9.44599
▁Fro	-9.44877
▁Frank	-9.45214
▁10.	-9.45215
▁pass	-9.45287
▁recent	-9.45356
▁ways	-9.45366
▁charm	-9.45368
▁Brown	-9.45378
▁dramatic	-9.45419
▁supposed	-9.45448
▁boring	-9.45661
▁company	-9.45668
▁silly	-9.45682
▁anti	-9.45713
▁create	-9.45714
▁except	-9.45779
?"	-9.45829
▁created	-9.45871
▁filled	-9.459
▁cause	-9.45908
▁win	-9.45943
▁post	-9.45979
▁...	-9.46048
▁talking	-9.46156
▁rock	-9.46624
▁inside	-9.46687
▁mere	-9.46692
▁s	-9.4677
▁needed	-9.46784
el	-9.46966
And	-9.47309
▁honest	-9.47565
One	-9.47584
time	-9.47792
▁5	-9.47868
▁journey	-9.48041
ry	-9.48045
▁straight	-9.48048
▁eventually	-9.48053
▁plenty	-9.48076
▁decent	-9.4808
▁vampire	-9.48365
▁stands	-9.48514
▁alive	-9.48579
▁road	-9.48733
▁prove	-9.48927
▁places	-9.48928
▁Star	-9.48932
Y	-9.49314
▁God	-9.49362
▁hands	-9.49464
ch	-9.49727
▁box	-9.49751
▁approach	-9.49813
▁design	-9.50193
▁feels	-9.50284
▁reviews	-9.50432
▁familiar	-9.50466
▁genuine	-9.5048
▁third	-9.5048
▁bunch	-9.50481
▁Disney	-9.50488
▁five	-9.50565
▁treat	-9.50784
▁sequel	-9.50818
▁directing	-9.5087
▁died	-9.50871
▁presented	-9.5089
▁By	-9.5103
espite	-9.51162
ist	-9.51361
▁adults	-9.51892
▁drive	-9.5196
▁emotions	-9.52037
▁shots	-9.52317
▁ideas	-9.52325
▁understanding	-9.52388
....	-9.5259
▁natural	-9.52719
age	-9.52725
▁twists	-9.52731
▁master	-9.52914
▁business	-9.52959
▁weird	-9.52963
▁negative	-9.52981
▁current	-9.52989
▁entertainment	-9.52992
▁exciting	-9.52994
▁glad	-9.52994
▁depth	-9.53003
▁lady	-9.53017
▁compelling	-9.53083
▁former	-9.53151
▁sell	-9.5326
▁suspect	-9.53312
▁setting	-9.53421
▁remain	-9.53457
▁soldier	-9.53459
▁longer	-9.53543
▁Van	-9.53584
▁U	-9.53863
▁Will	-9.53919
▁issues	-9.54134
▁leaves	-9.54249
▁Jane	-9.54265
▁feelings	-9.54436
▁Julie	-9.54605
▁awesome	-9.54632
▁appear	-9.55147
▁drug	-9.55443
▁York	-9.55544
▁crew	-9.55546
▁possible	-9.55566
▁cold	-9.55573
▁pay	-9.55628
▁Maybe	-9.55643
▁space	-9.55652
▁Like	-9.55662
▁mid	-9.55695
▁doctor	-9.55901
▁trip	-9.55947
▁chase	-9.56038
▁cartoon	-9.56048
▁band	-9.56061
▁critics	-9.56079
▁charming	-9.56139
▁minor	-9.56148
▁younger	-9.56235
not	-9.5629
he	-9.56536
▁Ma	-9.56624
▁added	-9.56729
p	-9.5692
b	-9.56959
▁9	-9.57559
▁large	-9.57832
All	-9.57856
ley	-9.58017
▁listen	-9.58128
▁funniest	-9.58176
▁Howard	-9.58187
▁running	-9.58188
▁loving	-9.582
▁predictable	-9.58209
▁sweet	-9.58214
▁earth	-9.58223
▁brutal	-9.58224
▁scenery	-9.58244
▁("	-9.58277
▁disappointed	-9.58289
▁political	-9.58294
▁Watch	-9.58363
▁decided	-9.58539
▁odd	-9.58647
▁obviously	-9.58648
▁forever	-9.58684
▁choice	-9.5877
▁street	-9.5879
▁further	-9.5932
▁pre	-9.59693
▁blow	-9.59953
▁possib	-9.60029
▁reading	-9.60037
▁steal	-9.60329
▁sexual	-9.6057
▁talk	-9.60603
▁normal	-9.60684
▁w	-9.60734
▁date	-9.60735
▁sit	-9.60767
For	-9.60822
▁fell	-9.6084
▁questions	-9.60851
▁lovely	-9.60871
▁language	-9.60879
▁gorgeous	-9.60879
▁legend	-9.60879
▁France	-9.60896
▁Indian	-9.60897
▁front	-9.60899
▁fresh	-9.60903
▁Batman	-9.60951
▁gone	-9.60989
▁Two	-9.60997
▁girlfriend	-9.61013
fi	-9.61153
▁yes	-9.61157
▁walk	-9.61192
▁fit	-9.61275
▁terms	-9.61315
▁concept	-9.61331
▁nor	-9.61444
▁Movie	-9.61464
▁fear	-9.61532
▁*	-9.61583
▁killer	-9.61598
▁begin	-9.61607
▁effect	-9.61621
▁First	-9.61712
▁reasons	-9.61775
▁warm	-9.63023
▁physical	-9.63381
ance	-9.63422
this	-9.63425
▁appreciate	-9.63458
▁hell	-9.6348
▁return	-9.63482
▁color	-9.63532
▁list	-9.63592
side	-9.63623
▁hospital	-9.63656
▁footage	-9.63659
▁earlier	-9.63661
▁VHS	-9.63667
▁Buddy	-9.63669
▁impressed	-9.63718
▁weak	-9.63748
▁Director	-9.63761
▁Why	-9.63846
▁cover	-9.63875
▁Overall	-9.64034
▁edge	-9.64117
▁Or	-9.64191
▁station	-9.64228
▁soul	-9.64325
▁student	-9.64439
▁teen	-9.6453
▁credit	-9.64573
▁fighting	-9.64601
▁values	-9.64885
▁continue	-9.6517
▁Ed	-9.65212
▁offers	-9.65467
▁portray	-9.65573
▁provides	-9.65836
▁provide	-9.66083
▁violent	-9.66154
ily	-9.66167
▁30	-9.66174
ever	-9.66425
▁humour	-9.66514
▁cheesy	-9.66523
▁marriage	-9.66523
▁worse	-9.66523
▁worst	-9.66523
▁intense	-9.66529
▁friendship	-9.66536
▁debut	-9.66545
▁spend	-9.66549
▁common	-9.66555
▁Charles	-9.66588
▁Ryan	-9.66606
▁noir	-9.66639
▁slightly	-9.66654
▁expectations	-9.66669
▁worked	-9.66765
▁forgotten	-9.66784
▁speak	-9.66821
▁none	-9.66837
▁secret	-9.66966
▁strength	-9.67001
▁90	-9.67146
▁seek	-9.6726
▁Dan	-9.67293
by	-9.67303
▁laughed	-9.67494
▁ended	-9.67712
▁Me	-9.67839
▁King	-9.67912
▁uses	-9.67931
▁loves	-9.67956
making	-9.68263
ian	-9.6868
▁force	-9.68751
▁directors	-9.68972
▁explain	-9.69085
▁historical	-9.69134
▁helps	-9.69139
B	-9.69193
▁unlike	-9.69227
▁De	-9.69339
▁Louis	-9.69368
▁Park	-9.69369
▁presence	-9.69455
▁quiet	-9.69455
▁content	-9.69462
▁impressive	-9.69465
▁sharp	-9.69511
▁stick	-9.69527
▁telling	-9.69545
▁ride	-9.69549
▁forward	-9.69561
▁West	-9.69616
▁Best	-9.69694
▁record	-9.69724
▁changed	-9.69855
if	-9.69949
▁sexy	-9.69978
▁relate	-9.69984
▁considered	-9.70135
▁Here	-9.70139
▁See	-9.7018
▁6	-9.70234
▁regard	-9.70311
▁seat	-9.70313
▁rating	-9.70392
▁ship	-9.70579
▁share	-9.7071
▁II	-9.70794
▁meaning	-9.70813
▁Ben	-9.7088
▁appeal	-9.71537
▁red	-9.71898
▁remains	-9.71912
▁perform	-9.72019
?)	-9.72051
x	-9.7206
▁rare	-9.72171
▁successful	-9.72216
▁water	-9.72219
son	-9.72311
▁details	-9.72364
▁Chan	-9.72467
▁basic	-9.72476
▁impact	-9.72488
▁London	-9.72495
▁genius	-9.72495
▁Owen	-9.72495
▁scary	-9.72504
▁development	-9.72505
▁disturbing	-9.7251
▁animated	-9.72523
▁Fox	-9.72524
▁immediately	-9.72538
▁Sure	-9.72544
▁Jean	-9.72637
▁sci	-9.72673
tic	-9.72808
▁shocking	-9.72811
▁anyway	-9.72847
▁Yes	-9.72853
at	-9.72929
▁tend	-9.72932
▁survive	-9.73159
▁pop	-9.73257
spite	-9.73301
work	-9.73323
▁reach	-9.73451
▁singer	-9.73519
▁monster	-9.73565
▁accident	-9.73591
▁cinematic	-9.73748
▁lovers	-9.74237
ful	-9.74506
We	-9.74733
▁door	-9.74944
O	-9.75046
coming	-9.75146
▁Russia	-9.75433
▁incredibl	-9.75481
▁notice	-9.75551
▁leav	-9.75567
▁reflect	-9.75586
▁program	-9.75605
▁narrative	-9.7561
▁ridiculous	-9.7561
▁contrast	-9.75611
▁basically	-9.75619
▁Jackson	-9.75629
▁sight	-9.75654
▁Harry	-9.75657
▁House	-9.75659
▁refreshing	-9.7567
▁somehow	-9.7568
▁People	-9.75691
▁City	-9.75717
▁High	-9.75723
▁apparently	-9.75744
▁average	-9.75745
▁Ray	-9.75791
▁cute	-9.75803
▁produced	-9.75814
▁forced	-9.75871
▁surprisingly	-9.75904
On	-9.7595
▁editing	-9.75956
▁moved	-9.75971
▁brain	-9.76105
▁vari	-9.76121
▁ability	-9.76127
▁tragic	-9.76286
▁entirely	-9.76364
▁passion	-9.76367
▁hair	-9.76458
▁lived	-9.76531
▁frame	-9.76678
ted	-9.76725
▁track	-9.7677
▁aspect	-9.76786
▁Russian	-9.76933
▁opera	-9.77123
▁delivers	-9.77148
▁player	-9.77302
▁dis	-9.77346
f	-9.77355
ism	-9.77362
▁cry	-9.77993
▁Ms	-9.77993
▁purchase	-9.78223
That	-9.78279
▁suffer	-9.78307
ton	-9.78312
cy	-9.78343
w	-9.78753
▁loud	-9.78824
▁suicide	-9.78836
▁creative	-9.78836
▁government	-9.78836
▁memory	-9.78836
▁crowd	-9.7884
▁Argento	-9.78848
▁freedom	-9.7885
▁Island	-9.78851
▁cult	-9.78863
▁Life	-9.78863
▁chose	-9.78874
▁Keaton	-9.78883
▁crazy	-9.78885
▁somewhere	-9.78898
▁patient	-9.78915
▁seemingly	-9.78924
▁fascinating	-9.78962
▁amusing	-9.78975
no	-9.78987
▁Anne	-9.78998
▁7	-9.79003
▁Un	-9.79029
▁Australian	-9.79116
▁allow	-9.79148
▁shooting	-9.79165
▁singing	-9.79183
ach	-9.79211
▁Le	-9.79232
▁unknown	-9.7934
▁X	-9.79385
▁ahead	-9.79472
▁slowly	-9.79739
▁hot	-9.79763
▁store	-9.79844
▁whom	-9.79844
▁pair	-9.79848
▁beat	-9.80016
▁emotion	-9.80021
▁carrie	-9.80051
▁location	-9.80059
▁affair	-9.80087
▁member	-9.80128
▁missing	-9.80179
▁NOT	-9.8021
▁ones	-9.80337
ur	-9.80375
▁remembered	-9.80405
▁bigge	-9.80415
▁addition	-9.80619
▁total	-9.81199
▁credits	-9.81254
▁serve	-9.81475
After	-9.81609
▁note	-9.81627
▁tight	-9.81817
▁sub	-9.81853
▁V	-9.82132
▁loss	-9.82135
▁intriguing	-9.82169
▁Thomas	-9.82169
▁teenage	-9.8218
▁football	-9.82181
▁information	-9.82187
▁dumb	-9.82198
▁Christmas	-9.82199
▁study	-9.82203
▁avoid	-9.82217
▁Jr	-9.82226
▁otherwise	-9.82239
▁fly	-9.8225
▁Charlie	-9.82256
▁pain	-9.82274
▁Still	-9.82281
▁annoying	-9.82299
▁Every	-9.823
▁wide	-9.82313
▁Thing	-9.82382
▁tone	-9.82494
W	-9.82636
▁spirit	-9.82754
▁Bond	-9.82848
▁answer	-9.83129
▁attack	-9.83187
ine	-9.83187
▁using	-9.83253
▁club	-9.83258
▁offer	-9.8342
▁studio	-9.83439
▁adaptation	-9.83446
▁adventure	-9.83466
▁horse	-9.83467
▁minute	-9.83619
▁acts	-9.8368
▁Night	-9.83684
ey	-9.83781
played	-9.83973
F	-9.84239
▁killing	-9.84254
▁direct	-9.84384
▁happening	-9.84541
you	-9.84568
▁crap	-9.84592
ne	-9.84594
▁casting	-9.84612
▁gold	-9.84624
▁owner	-9.84653
▁draw	-9.84711
▁soldiers	-9.8497
well	-9.85029
ting	-9.85094
▁surprising	-9.85316
▁plane	-9.85556
▁sick	-9.85603
▁latter	-9.85618
▁involving	-9.85629
▁positive	-9.85629
▁boyfriend	-9.85649
▁Smith	-9.85668
▁century	-9.85671
▁Jones	-9.85677
▁office	-9.85702
▁born	-9.85714
▁finest	-9.85732
▁quickly	-9.85888
▁dreams	-9.85905
▁inter	-9.85971
▁Billy	-9.85991
▁v	-9.86335
▁moral	-9.86355
▁gags	-9.86402
▁brief	-9.86433
▁western	-9.86546
▁points	-9.86733
▁Can	-9.86855
▁conclusion	-9.869
▁smile	-9.86964
▁nicely	-9.87276
▁fate	-9.87323
▁party	-9.87339
▁wild	-9.87518
▁Mrs	-9.8813
ant	-9.88217
▁Red	-9.88238
▁catch	-9.88464
▁15	-9.88618
When	-9.88634
ably	-9.88691
▁match	-9.88758
▁claim	-9.88817
▁loose	-9.88869
▁gang	-9.89
▁10/10	-9.89015
▁ha	-9.89044
▁spoil	-9.89084
▁ground	-9.89086
▁super	-9.89115
▁magic	-9.89176
▁fiction	-9.89184
Jennifer	-9.89189
	-9.89189
▁Festival	-9.89189
▁South	-9.8919
▁Larry	-9.8919
▁Cooper	-9.89191
▁bought	-9.89192
▁nudity	-9.89193
▁underrated	-9.89196
▁Dracula	-9.892
▁martial	-9.892
▁nasty	-9.892
▁pacing	-9.89201
ive	-9.8921
▁magnificent	-9.8921
▁Ponyo	-9.89221
▁bored	-9.89231
▁utter	-9.89233
▁Max	-9.89252
▁remarkable	-9.89253
▁likable	-9.89261
▁US	-9.89274
▁Everyone	-9.89294
▁unfortunately	-9.89318
▁OK	-9.89359
▁Sean	-9.8936
▁traditional	-9.89368
▁revealed	-9.89369
▁Though	-9.89417
▁Lee	-9.89442
▁moves	-9.89592
▁taste	-9.89935
▁personally	-9.89993
▁70'	-9.90045
▁adult	-9.90122
▁kick	-9.90173
▁changes	-9.9022
▁waiting	-9.90229
▁alien	-9.90364
ized	-9.90427
▁island	-9.90525
▁impression	-9.90532
▁priest	-9.90535
▁bed	-9.9055
▁provid	-9.90615
▁write	-9.90644
▁appearance	-9.90746
▁element	-9.90816
▁lesson	-9.90893
ia	-9.90936
na	-9.90958
ty	-9.90966
ra	-9.91074
▁themes	-9.91513
▁Go	-9.91515
▁Pa	-9.91533
▁aspects	-9.91568
▁shop	-9.91676
▁develop	-9.9185
▁streets	-9.92053
▁met	-9.92241
▁aside	-9.9232
K	-9.924
that	-9.92493
▁unexpected	-9.92571
▁Fulci	-9.92892
▁BBC	-9.92893
▁knowledge	-9.92894
▁tough	-9.92895
▁wrote	-9.92905
▁baby	-9.92905
▁impossible	-9.92907
▁surreal	-9.92909
▁Shakespeare	-9.92925
▁Rockne	-9.92929
▁summer	-9.92933
▁Madonna	-9.92947
▁jump	-9.92948
▁Dead	-9.92951
▁intended	-9.92968
▁Yet	-9.92972
▁Dean	-9.92996
▁sounds	-9.93019
▁Oh	-9.93055
▁received	-9.93058
▁equally	-9.93066
▁literally	-9.93096
▁Unfortunately	-9.93118
▁Their	-9.9313
▁Paris	-9.93237
▁allowed	-9.93292
▁willing	-9.93314
▁50	-9.93322
▁plus	-9.93469
be	-9.93495
▁ring	-9.93556
▁arts	-9.93686
E	-9.93804
▁lies	-9.93898
▁professional	-9.93905
▁fully	-9.93959
there	-9.94082
▁double	-9.941
▁environment	-9.94244
▁combination	-9.94379
▁remake	-9.94381
▁brilliantly	-9.94403
▁Guy	-9.94448
▁favourite	-9.94449
▁meant	-9.94515
▁difference	-9.94523
▁criminal	-9.9456
▁detective	-9.9458
▁state	-9.94762
ha	-9.9511
▁Do	-9.95257
▁likely	-9.95282
et	-9.95396
▁lover	-9.95426
▁players	-9.95439
▁grand	-9.95449
▁visit	-9.95485
▁flat	-9.95566
with	-9.96107
even	-9.96173
▁cost	-9.96185
▁led	-9.96228
▁depict	-9.96348
▁finish	-9.9638
▁mysterious	-9.9642
L	-9.96423
▁innocent	-9.96446
▁fake	-9.96468
▁struggle	-9.9648
▁climax	-9.96683
▁1970	-9.96739
▁necessary	-9.96739
▁comedic	-9.96739
▁opposite	-9.96739
▁twice	-9.9674
▁childhood	-9.96742
▁shall	-9.96744
▁Mario	-9.96744
▁spent	-9.96753
▁screenplay	-9.96756
▁heavy	-9.96759
▁photography	-9.96768
▁dull	-9.96773
▁smart	-9.96774
▁Lane	-9.96777
▁personality	-9.96777
nt	-9.96811
▁Bruce	-9.96817
▁humanity	-9.96844
▁delightful	-9.9687
▁whatever	-9.96983
▁noticed	-9.97007
▁carry	-9.97023
▁developed	-9.97147
▁cops	-9.97669
▁science	-9.97898
some	-9.97964
▁Ford	-9.98015
▁Se	-9.98077
▁Mo	-9.98192
line	-9.98217
▁comparison	-9.98522
▁accent	-9.98595
▁individual	-9.98604
▁generation	-9.98622
▁joke	-9.98675
red	-9.98744
▁numbers	-9.98952
▁bar	-9.9906
▁answers	-9.99161
▁Stan	-9.99236
uch	-9.99257
▁students	-9.99651
see	-9.99689
▁proves	-10.0006
▁relationships	-10.0008
▁starr	-10.0018
▁e	-10.0018
▁fill	-10.003
▁quick	-10.0043
▁rush	-10.0053
▁involve	-10.0056
▁Tim	-10.0061
▁fire	-10.0068
▁lose	-10.0073
▁range	-10.0073
▁extraordinary	-10.0074
▁poignant	-10.0074
▁England	-10.0074
▁pleasant	-10.0074
▁memories	-10.0074
▁therefore	-10.0074
▁Damme	-10.0074
▁ordinary	-10.0074
▁flight	-10.0074
▁trust	-10.0074
▁media	-10.0075
▁hidden	-10.0075
▁unusual	-10.0075
▁hotel	-10.0076
▁commentary	-10.0076
To	-10.0076
▁artistic	-10.0077
▁Buster	-10.0077
▁slasher	-10.0078
▁Bob	-10.0078
ar	-10.0079
▁sensitive	-10.008
te	-10.0088
▁actresses	-10.0092
▁Big	-10.0099
▁masterful	-10.01
ical	-10.0116
▁rarely	-10.0117
▁mad	-10.0118
get	-10.0126
▁13	-10.0149
▁flaws	-10.0166
ka	-10.0175
▁compar	-10.0179
He	-10.018
way	-10.0216
▁60	-10.0228
▁manner	-10.0231
▁Anyway	-10.0254
v	-10.0262
▁Show	-10.0264
▁exception	-10.0265
▁victim	-10.0267
▁desire	-10.0274
▁expecting	-10.0275
▁extra	-10.0277
▁skill	-10.0279
▁mark	-10.0282
▁image	-10.0283
back	-10.0293
▁Out	-10.03
▁Sam	-10.0306
▁land	-10.0325
▁fu	-10.0331
▁Ra	-10.0339
▁cheap	-10.0348
▁OF	-10.0366
go	-10.0375
▁Wars	-10.04
just	-10.0431
right	-10.0432
▁St	-10.0433
Overall	-10.0434
▁build	-10.0436
▁audiences	-10.0437
▁bright	-10.0451
all	-10.0474
▁Martin	-10.0481
for	-10.0489
▁engaging	-10.0491
▁́	-10.0491
▁context	-10.0491
▁process	-10.0491
▁subtitles	-10.0491
▁spoof	-10.0491
▁funnier	-10.0491
▁theatrical	-10.0491
▁opportunity	-10.0492
co	-10.0492
▁represent	-10.0493
▁motion	-10.0493
▁dangerous	-10.0495
▁Perhaps	-10.0497
▁center	-10.0497
▁u	-10.0498
▁humorous	-10.0501
▁Kevin	-10.0502
▁satisfying	-10.0503
▁attempts	-10.0508
▁board	-10.051
▁recognize	-10.0512
▁belong	-10.0518
▁lucky	-10.0519
▁drawn	-10.0524
hose	-10.0527
▁planet	-10.0549
▁costumes	-10.055
star	-10.0557
▁paced	-10.0565
▁mis	-10.0568
ged	-10.0586
▁deliver	-10.0604
ette	-10.0614
ta	-10.0629
▁worthy	-10.063
▁Hav	-10.0666
▁dies	-10.0674
▁rise	-10.0674
▁sign	-10.0683
▁length	-10.0688
▁lighting	-10.0694
▁Girl	-10.0696
▁plain	-10.0702
▁flicks	-10.0704
▁count	-10.0704
▁pleasure	-10.0708
▁Day	-10.0718
▁sleep	-10.0719
▁Sara	-10.0748
▁Victor	-10.077
▁onto	-10.0779
▁forces	-10.0799
what	-10.0854
▁40	-10.0855
▁maker	-10.0856
▁area	-10.0874
especially	-10.0881
▁villains	-10.0892
▁repeat	-10.0893
▁independent	-10.0903
▁speech	-10.092
▁Europe	-10.0923
albeit	-10.0925
▁religious	-10.0925
▁psychological	-10.0925
▁Patrick	-10.0925
▁spectacular	-10.0925
▁kung	-10.0925
▁fellow	-10.0925
▁revenge	-10.0926
▁Earth	-10.0927
▁contemporary	-10.0927
▁Marlow	-10.0927
▁Wayne	-10.0927
▁thoroughly	-10.0928
blahblahblahblah	-10.0928
▁confused	-10.0929
▁affect	-10.0929
▁Doug	-10.0929
▁bigger	-10.093
▁1950	-10.0932
▁Matthau	-10.0932
▁dozen	-10.0932
▁Jason	-10.0932
▁Christopher	-10.0935
N	-10.0936
Because	-10.0938
▁inspired	-10.0939
▁May	-10.0943
▁Hitch	-10.0946
▁Death	-10.0946
▁fame	-10.0949
▁apart	-10.0952
▁ultimately	-10.0953
▁soft	-10.0953
▁`	-10.0955
▁key	-10.0957
▁Andrews	-10.0968
▁Germany	-10.0974
▁Young	-10.0979
▁passed	-10.0993
▁Mc	-10.0994
▁North	-10.1003
▁maintain	-10.1007
Since	-10.1014
▁flashbacks	-10.1016
▁deeply	-10.1029
land	-10.1036
▁asked	-10.1039
▁bus	-10.1041
▁Let	-10.1044
▁clean	-10.1051
▁demands	-10.1052
▁viewed	-10.1062
▁Ho	-10.108
rs	-10.109
▁shark	-10.1097
▁interviews	-10.1102
▁standards	-10.1102
▁thanks	-10.1105
▁teach	-10.1113
▁partner	-10.1114
▁filmmakers	-10.1119
▁trailer	-10.1135
▁epic	-10.1146
▁brothers	-10.1147
▁drink	-10.1153
▁wall	-10.1159
▁teacher	-10.1167
▁teenager	-10.1172
▁model	-10.1174
▁Alex	-10.1178
▁issue	-10.1183
+	-10.1195
▁names	-10.1214
▁building	-10.1224
▁step	-10.1232
▁Miss	-10.1235
ma	-10.125
▁vs	-10.1262
given	-10.1266
pe	-10.1267
▁drugs	-10.1289
▁bare	-10.1301
u	-10.1313
▁news	-10.1354
▁breaks	-10.1356
▁suppose	-10.1359
▁raise	-10.1371
▁foreign	-10.1376
▁Gordon	-10.138
▁energy	-10.138
▁families	-10.138
▁innocence	-10.138
▁regret	-10.138
▁tragedy	-10.138
▁featuring	-10.138
▁Daffy	-10.138
▁awful	-10.138
▁Khan	-10.1381
▁afraid	-10.1381
▁urban	-10.1381
▁sent	-10.1381
▁sitting	-10.1382
▁laughter	-10.1383
▁joy	-10.1383
▁Little	-10.1384
▁boat	-10.1384
▁Crystal	-10.1384
▁choose	-10.1384
▁hang	-10.1385
▁Helen	-10.1389
▁19	-10.1389
▁fish	-10.1391
▁horrible	-10.1391
▁Where	-10.1391
▁realism	-10.1393
▁Long	-10.1396
▁hopefully	-10.1397
▁deserved	-10.1399
▁hat	-10.1408
▁described	-10.1411
grew	-10.1413
▁recall	-10.1414
▁dated	-10.1421
▁pictures	-10.1427
▁offered	-10.1429
▁thinks	-10.1435
▁g	-10.1437
▁ready	-10.1476
▁meeting	-10.1506
▁La	-10.1515
▁centr	-10.1529
▁channel	-10.1537
▁Oz	-10.1538
arious	-10.1565
year	-10.157
▁satire	-10.1575
▁tears	-10.1575
▁ages	-10.1577
▁suggest	-10.1599
lo	-10.161
▁surely	-10.1612
▁Other	-10.1631
▁encounter	-10.1633
▁decision	-10.1634
▁tune	-10.1638
▁spot	-10.1642
▁enter	-10.1644
▁artist	-10.1644
▁value	-10.1647
▁Al	-10.1657
▁faces	-10.1662
▁Blue	-10.1663
▁leader	-10.1688
▁wear	-10.1699
packed	-10.1714
▁cross	-10.1728
▁host	-10.1761
tion	-10.1767
▁experiences	-10.1787
John	-10.18
made	-10.1802
▁initial	-10.1804
turned	-10.1806
▁tape	-10.1811
▁gun	-10.1819
▁accurate	-10.1825
▁grace	-10.1841
▁object	-10.1843
▁desert	-10.1845
▁luck	-10.1847
▁describe	-10.1849
▁crash	-10.185
▁Cronenberg	-10.1856
▁scientist	-10.1856
▁Altman	-10.1856
▁fabulous	-10.1856
▁Austen	-10.1856
▁potential	-10.1856
▁source	-10.1856
▁witty	-10.1857
▁Kahn	-10.1857
▁Marine	-10.1857
▁Nolan	-10.1857
▁Chinese	-10.1858
▁technical	-10.1858
▁Train	-10.1858
LY	-10.1858
▁boss	-10.1859
▁Francis	-10.1859
▁Kelly	-10.186
▁round	-10.186
▁Law	-10.1863
Eddie	-10.1867
Elizabeth	-10.1867
▁critical	-10.1871
▁latest	-10.1871
▁suddenly	-10.188
▁held	-10.1881
▁Bugs	-10.1882
G	-10.1887
▁haunting	-10.1895
▁six	-10.1901
▁Da	-10.192
▁grown	-10.1923
▁theaters	-10.1924
▁appeared	-10.1924
▁timeless	-10.1924
▁travel	-10.1929
▁visually	-10.193
▁twisted	-10.1932
▁aired	-10.1941
▁cap	-10.1951
▁finale	-10.196
don	-10.1974
▁prior	-10.1981
▁accept	-10.2006
▁thrill	-10.2012
▁lacking	-10.2014
▁mix	-10.2052
▁market	-10.2058
▁Warner	-10.2076
▁teenagers	-10.2083
movie	-10.2085
▁test	-10.209
▁favorites	-10.2094
▁degree	-10.2107
▁vehicle	-10.2107
▁imagination	-10.2107
▁falling	-10.2111
specially	-10.2117
▁system	-10.2127
▁tear	-10.2131
▁mission	-10.2135
▁officer	-10.2135
▁reaction	-10.214
▁demon	-10.2145
▁filmmaker	-10.2158
▁include	-10.2159
ling	-10.2168
▁award	-10.2187
▁Boy	-10.2193
▁monsters	-10.2199
▁continu	-10.2209
▁returns	-10.2224
▁mouth	-10.2241
▁choices	-10.2243
▁fits	-10.2261
▁bits	-10.2266
▁Jeff	-10.2295
▁levels	-10.2308
▁proud	-10.2315
▁weeks	-10.2319
▁ultimate	-10.2326
▁prison	-10.2329
▁addict	-10.2354
▁Bergman	-10.2356
▁IMDb	-10.2356
▁disagree	-10.2356
▁intelligence	-10.2356
▁position	-10.2356
▁twenty	-10.2356
▁courage	-10.2356
▁computer	-10.2356
▁concert	-10.2356
▁surface	-10.2356
▁Montgomery	-10.2356
▁assume	-10.2356
▁Kong	-10.2357
▁chain	-10.2357
▁imagery	-10.2357
▁path	-10.2358
▁Arthur	-10.2358
▁Texas	-10.2358
▁parody	-10.2358
▁blue	-10.2358
▁calm	-10.2358
▁Dexter	-10.2358
▁Velvet	-10.2358
▁Sandra	-10.2358
▁presentation	-10.2358
▁complicated	-10.2359
▁Burton	-10.236
▁depiction	-10.236
▁industry	-10.2361
▁security	-10.2361
▁dying	-10.2361
▁bag	-10.2361
▁tired	-10.2361
▁nobody	-10.2362
▁Never	-10.2363
▁dirty	-10.2363
▁Army	-10.2363
▁Lord	-10.2364
▁Henry	-10.2366
▁Betty	-10.2367
▁sorry	-10.2367
▁broken	-10.2368
▁race	-10.2369
▁Before	-10.2369
▁hooked	-10.237
▁combined	-10.237
▁Carl	-10.2372
▁Susan	-10.2372
▁handled	-10.2373
▁Mary	-10.2374
▁Despite	-10.2377
▁:)	-10.2381
▁Brooks	-10.2395
▁mixed	-10.2399
▁appreciated	-10.2408
▁sing	-10.2408
till	-10.2411
▁normally	-10.2416
we	-10.2426
▁results	-10.2449
▁months	-10.245
▁creatures	-10.2473
▁witness	-10.2475
losing	-10.2484
▁believed	-10.2527
her	-10.2529
▁drag	-10.2541
▁plans	-10.2543
▁shock	-10.2556
▁wondering	-10.2557
▁village	-10.2602
▁display	-10.2626
▁concern	-10.2629
▁native	-10.2641
▁agent	-10.2662
ose	-10.2669
▁standard	-10.2674
▁interview	-10.2675
▁m	-10.2677
▁games	-10.2685
▁Western	-10.2686
▁refuse	-10.2689
▁law	-10.2707
▁mess	-10.2722
3	-10.2751
▁/	-10.2761
▁per	-10.2774
budget	-10.2784
While	-10.2827
▁edit	-10.2828
life	-10.2829
▁shoot	-10.2833
til	-10.2843
▁youth	-10.2862
▁India	-10.2862
▁Steve	-10.2863
▁Space	-10.2866
▁h	-10.2869
▁built	-10.2882
▁evidence	-10.2882
▁explanation	-10.2882
▁fantasy	-10.2882
▁remote	-10.2882
▁terrible	-10.2882
▁universe	-10.2882
▁morning	-10.2882
▁United	-10.2882
▁prejudice	-10.2882
▁Kurtz	-10.2882
▁raw	-10.2883
▁minimal	-10.2883
▁contact	-10.2883
▁Polish	-10.2883
▁Dame	-10.2884
▁Grunnick	-10.2884
▁Jonathan	-10.2884
▁harsh	-10.2884
▁neither	-10.2884
▁danger	-10.2884
▁nurse	-10.2885
▁statement	-10.2885
▁blend	-10.2885
▁Kermit	-10.2887
▁timing	-10.2887
▁everybody	-10.2887
▁Johnny	-10.2888
▁Tony	-10.2889
▁Frost	-10.2889
▁Hardy	-10.289
▁Sinatra	-10.289
ke	-10.289
▁food	-10.289
▁Danny	-10.2891
▁mine	-10.2893
é	-10.2893
▁Everything	-10.2894
▁touches	-10.2895
▁Monke	-10.2895
▁army	-10.2896
▁European	-10.2896
▁punk	-10.2899
▁Anand	-10.2899
▁Dunn	-10.2903
▁unless	-10.2908
▁Finally	-10.2909
▁Lou	-10.291
▁States	-10.2923
▁Davis	-10.2933
▁eating	-10.2934
ory	-10.2942
off	-10.2942
▁effectively	-10.2961
▁Live	-10.2965
▁generally	-10.298
▁inner	-10.2986
▁structure	-10.299
▁talents	-10.2995
▁picked	-10.2997
▁Top	-10.3018
▁Master	-10.3019
J	-10.3023
▁Thre	-10.3034
▁arms	-10.3036
de	-10.3053
ups	-10.3053
▁knowing	-10.3054
▁ill	-10.3057
▁Any	-10.3059
▁fails	-10.3063
▁succeeds	-10.3064
▁reviewers	-10.3066
▁sea	-10.3067
▁Car	-10.3074
▁bother	-10.3097
director	-10.3104
▁push	-10.3108
American	-10.3134
fairly	-10.3138
so	-10.3146
ina	-10.3152
▁conflict	-10.3154
▁theatre	-10.3156
▁print	-10.3162
me	-10.3168
▁driv	-10.3185
▁god	-10.3194
▁promise	-10.32
▁relative	-10.3212
▁producer	-10.3233
day	-10.3249
▁thank	-10.3266
▁send	-10.3273
▁humans	-10.329
▁cat	-10.329
▁prefer	-10.3296
▁continues	-10.3297
over	-10.3297
▁bound	-10.3318
um	-10.332
▁heads	-10.3355
▁El	-10.3362
down	-10.3372
▁creates	-10.3374
from	-10.3383
although	-10.3384
▁Gun	-10.3392
▁marvelous	-10.3405
▁constant	-10.3406
▁convince	-10.3416
▁base	-10.3416
▁Chris	-10.3418
▁Fr	-10.3423
▁whil	-10.3425
▁ma	-10.3426
▁AND	-10.3434
▁attract	-10.3436
▁snow	-10.3438
▁Japan	-10.3438
▁Mexican	-10.3438
▁numerous	-10.3438
▁Spanish	-10.3438
▁Britain	-10.3438
▁Doctor	-10.3438
▁lovable	-10.3438
▁load	-10.3438
▁angry	-10.3438
▁ironic	-10.3439
▁Russell	-10.3439
do	-10.344
▁Frankenstein	-10.344
▁Academy	-10.344
▁tribute	-10.344
▁Martha	-10.344
▁appropriate	-10.344
▁unforgettable	-10.344
▁Broadway	-10.344
▁thus	-10.344
▁Carlos	-10.344
▁Bates	-10.344
▁Moore	-10.344
▁speed	-10.344
▁Union	-10.3441
▁sword	-10.3441
▁vision	-10.3442
▁gripping	-10.3443
▁anymore	-10.3443
▁slapstick	-10.3443
▁mainstream	-10.3443
▁relief	-10.3443
▁attractive	-10.3443
▁larger	-10.3444
▁Brian	-10.3445
▁faithful	-10.3445
▁Rock	-10.3445
▁fictional	-10.3446
▁practical	-10.3446
▁Boris	-10.3447
▁Quinn	-10.3448
▁sadness	-10.3449
▁hoping	-10.345
▁cable	-10.3451
▁Rating	-10.3451
▁Such	-10.3456
▁Gene	-10.3456
▁camp	-10.3457
▁wit	-10.3457
▁occasionally	-10.3459
▁ruin	-10.3459
▁dad	-10.3461
▁spoilers	-10.3463
▁Along	-10.347
▁Lo	-10.3481
▁express	-10.3486
▁heroine	-10.3489
▁depicted	-10.3491
▁finished	-10.3492
ious	-10.3503
war	-10.3511
▁realized	-10.3511
▁honestly	-10.3514
Gary	-10.3531
▁flying	-10.3532
▁suffering	-10.3539
▁mentioned	-10.3547
▁techniques	-10.3555
▁writers	-10.3565
▁12	-10.3569
▁folks	-10.3592
▁tour	-10.3599
▁trapp	-10.3599
▁Philip	-10.3611
▁tense	-10.3615
▁graphics	-10.3617
▁producers	-10.3657
▁plan	-10.3658
ble	-10.3687
▁prepar	-10.3689
▁judge	-10.3703
▁Ro	-10.3714
▁helped	-10.3729
▁window	-10.3745
▁fare	-10.3746
Some	-10.3755
▁benefit	-10.3777
lan	-10.3779
▁festival	-10.379
▁dealing	-10.3791
▁ball	-10.3794
▁crack	-10.3794
▁perspective	-10.3797
▁veteran	-10.3797
▁root	-10.3798
▁commercial	-10.3801
▁purpose	-10.3802
▁lesbian	-10.3802
▁attitude	-10.3808
▁parent	-10.3823
▁Americans	-10.3833
▁cameo	-10.3837
▁evening	-10.385
▁shorts	-10.3884
etic	-10.3885
most	-10.3887
wise	-10.3898
▁Mel	-10.3927
ial	-10.3932
good	-10.3935
have	-10.3937
written	-10.3967
Well	-10.3979
▁convey	-10.398
4	-10.3983
▁par	-10.3998
▁achieve	-10.4004
▁colour	-10.4008
▁receive	-10.4014
▁gross	-10.4015
▁visuals	-10.4018
▁kiss	-10.4024
▁specific	-10.4025
▁Drebin	-10.4026
▁Nathaniel	-10.4026
▁Tarzan	-10.4026
▁ensemble	-10.4026
▁obsession	-10.4026
▁routine	-10.4026
▁virtual	-10.4026
▁1940	-10.4026
▁awkward	-10.4026
▁behavior	-10.4026
▁Nevsky	-10.4026
▁competition	-10.4026
▁Lewis	-10.4026
▁Prue	-10.4026
▁cousin	-10.4026
▁network	-10.4026
▁Colbert	-10.4026
▁porn	-10.4026
▁Murray	-10.4027
▁community	-10.4027
▁rough	-10.4027
▁safe	-10.4027
▁birth	-10.4028
▁heartwarming	-10.4028
▁thousand	-10.4028
▁LOVE	-10.4028
▁DeVito	-10.4028
▁suspenseful	-10.4028
▁Baby	-10.4028
▁Cell	-10.4028
▁Wilson	-10.4028
▁Penn	-10.403
▁Story	-10.403
▁executed	-10.4031
▁began	-10.4031
▁Natalie	-10.4031
▁Clint	-10.4031
▁excuse	-10.4032
▁service	-10.4032
▁Chucky	-10.4033
▁product	-10.4033
▁nominated	-10.4034
▁bank	-10.4035
▁Joseph	-10.4035
▁yeah	-10.4035
▁multi	-10.4035
▁Demons	-10.4035
▁Albert	-10.4036
▁Hanks	-10.4036
▁seven	-10.4037
▁Mike	-10.4037
▁Scarlett	-10.404
An	-10.4042
▁repeated	-10.4042
▁justice	-10.4043
▁tender	-10.4043
▁Jim	-10.4045
house	-10.4057
▁Robin	-10.4059
▁concerned	-10.4068
▁plots	-10.4073
▁politics	-10.4085
▁nail	-10.4087
▁physically	-10.4097
▁Brothers	-10.4098
▁largely	-10.4099
▁vote	-10.41
▁criticize	-10.4115
▁likes	-10.4118
▁beside	-10.412
▁holes	-10.4124
▁rated	-10.4128
▁recording	-10.4139
▁commented	-10.4139
▁speaking	-10.4142
▁emotionally	-10.4145
▁experienced	-10.4149
▁waste	-10.4155
his	-10.4157
ven	-10.4177
ground	-10.4185
▁murdered	-10.4187
▁sports	-10.4205
▁Y	-10.4207
law	-10.4253
▁da	-10.4259
▁event	-10.4269
▁amazingly	-10.43
▁Alexand	-10.4317
ED	-10.4326
▁regular	-10.4334
▁sp	-10.4338
▁fail	-10.4345
sh	-10.4345
▁IS	-10.4354
▁hurt	-10.4355
▁100	-10.4378
▁succeed	-10.4401
▁description	-10.4402
▁cars	-10.4407
▁locations	-10.4417
▁wound	-10.4431
▁Pe	-10.4436
▁Walter	-10.4436
▁decade	-10.4439
▁million	-10.444
▁sides	-10.4441
▁Roberts	-10.4451
▁coach	-10.4455
▁truck	-10.4457
▁reviewer	-10.4466
▁speaks	-10.4473
▁sorts	-10.4482
writer	-10.4482
▁fears	-10.4498
▁confront	-10.4513
▁shape	-10.4519
she	-10.4532
▁complain	-10.4547
ring	-10.4554
▁roll	-10.4557
▁musicals	-10.4567
hero	-10.4581
▁marry	-10.4589
▁videos	-10.4591
How	-10.4594
Who	-10.4595
Now	-10.4596
However	-10.4596
▁Jordan	-10.4599
▁70	-10.4599
▁pitch	-10.4606
▁intellectual	-10.4613
Joe	-10.4617
▁fashion	-10.4619
ities	-10.4624
▁produce	-10.4627
▁Bell	-10.463
▁Africa	-10.463
▁mistake	-10.4631
▁balance	-10.4632
▁require	-10.4634
▁trash	-10.4635
▁delight	-10.4636
▁hunt	-10.4637
nnie	-10.4642
▁Hall	-10.4643
ner	-10.4645
▁faith	-10.4645
▁Morris	-10.4647
▁bleak	-10.4648
▁quest	-10.4649
▁Christian	-10.465
Excellent	-10.4651
’	-10.4651
▁Laurel	-10.4651
▁Sarandon	-10.4651
▁religion	-10.4651
▁target	-10.4651
▁enemy	-10.4651
▁treasure	-10.4651
▁border	-10.4651
▁Dark	-10.4651
▁Michelle	-10.4651
▁wrapped	-10.4651
▁deliberate	-10.4651
▁brilliance	-10.4652
▁hint	-10.4652
▁eighties	-10.4653
▁apartment	-10.4653
▁military	-10.4653
▁creation	-10.4653
▁freak	-10.4653
▁expensive	-10.4653
▁Coppola	-10.4653
▁Alfred	-10.4653
▁Sometimes	-10.4653
▁Season	-10.4654
▁flawless	-10.4654
▁Colin	-10.4654
▁Danton	-10.4655
▁Hamlet	-10.4655
ING	-10.4655
▁formula	-10.4655
irty	-10.4656
▁mom	-10.4657
▁Instead	-10.4657
▁obsessed	-10.4657
▁Rick	-10.4657
▁stuck	-10.4657
▁Eastwood	-10.4657
▁Jimmy	-10.4657
▁Harris	-10.4658
▁reflection	-10.4658
▁thru	-10.4659
▁account	-10.4659
▁Bean	-10.4659
▁committed	-10.4659
▁8/10	-10.466
▁Eisenstein	-10.4661
▁Okay	-10.4661
▁Blood	-10.4664
▁dry	-10.4665
▁guilty	-10.4666
▁heroes	-10.4669
▁chilling	-10.4669
▁soap	-10.467
▁White	-10.467
▁sat	-10.4671
▁delivery	-10.4675
▁scared	-10.4677
").	-10.4677
See	-10.4683
▁failed	-10.4688
Think	-10.4691
fully	-10.4706
▁protect	-10.471
ile	-10.4713
▁Han	-10.4719
▁thrillers	-10.4721
▁thrilling	-10.4722
▁featured	-10.4722
▁factor	-10.4731
▁Z	-10.4736
▁button	-10.4741
▁Co	-10.4752
▁Roman	-10.4753
▁Fire	-10.4755
▁shines	-10.4758
▁previously	-10.476
▁Last	-10.4775
▁Ali	-10.4784
▁Gus	-10.4785
▁Jessi	-10.479
ped	-10.4797
▁Jay	-10.48
):	-10.4812
▁Pat	-10.4814
▁training	-10.4816
▁references	-10.4829
▁included	-10.4831
▁protagonists	-10.484
▁reveals	-10.4842
▁suit	-10.4846
▁aware	-10.4846
▁suits	-10.4854
▁exists	-10.4856
een	-10.4878
At	-10.4925
▁Re	-10.4925
▁/>"	-10.4949
men	-10.4954
▁voices	-10.4954
.....	-10.4957
▁se	-10.4961
ter	-10.4978
▁favor	-10.4991
nyone	-10.4992
da	-10.5007
▁exist	-10.5008
▁instance	-10.5037
▁eat	-10.5043
!!!!	-10.5044
▁Nights	-10.5053
gotten	-10.5057
▁superior	-10.5068
▁Stephen	-10.5071
▁challenge	-10.5078
▁occur	-10.5081
▁format	-10.5083
▁dress	-10.5085
▁deserve	-10.5088
▁Up	-10.5089
▁pilot	-10.5099
▁Thank	-10.51
▁thoughts	-10.5101
▁field	-10.5104
▁Mi	-10.5104
▁graphic	-10.5114
▁types	-10.5125
▁actions	-10.5127
▁site	-10.5132
▁colors	-10.5145
via	-10.5149
z	-10.5158
▁pro	-10.5195
▁hide	-10.5199
▁en	-10.5215
ball	-10.5217
▁vampires	-10.5228
▁hearing	-10.5253
Opera	-10.5259
7/10	-10.5261
▁haunt	-10.5264
"?	-10.5269
▁competent	-10.5278
▁knock	-10.5279
▁bitter	-10.528
▁tradition	-10.5284
▁magical	-10.5284
▁equal	-10.5286
▁sudden	-10.5286
▁slight	-10.5287
▁exceptional	-10.5292
▁dare	-10.5297
▁realizes	-10.5303
▁18	-10.5305
▁River	-10.5306
▁trade	-10.5306
nd	-10.5309
▁efforts	-10.5316
▁Reynolds	-10.5318
▁Vietnam	-10.5318
▁associate	-10.5318
▁atmospheric	-10.5318
▁authentic	-10.5318
▁backdrop	-10.5318
▁metaphor	-10.5318
▁radio	-10.5318
▁Cusack	-10.5318
▁ambitious	-10.5318
▁gruesome	-10.5318
▁restaurant	-10.5318
▁funeral	-10.5318
▁internet	-10.5318
▁rugby	-10.5318
▁Jewish	-10.5318
▁NYC	-10.5318
▁drop	-10.5319
▁understated	-10.5319
▁jail	-10.5319
▁personalities	-10.5319
▁peace	-10.5319
▁Haruhi	-10.532
▁Kubrick	-10.532
▁desperate	-10.532
▁NBC	-10.532
▁Sutherland	-10.532
▁Wolf	-10.532
▁treatment	-10.5321
▁handsome	-10.5321
▁curious	-10.5321
▁Office	-10.5321
▁UK	-10.5321
▁progresses	-10.5322
▁bold	-10.5323
▁Lang	-10.5324
▁HBO	-10.5324
▁Children	-10.5324
▁everyday	-10.5324
▁WWII	-10.5324
▁Eric	-10.5324
▁CGI	-10.5325
▁USA	-10.5325
▁anywhere	-10.5326
▁Columbo	-10.5328
▁Someone	-10.5328
▁photographed	-10.5329
▁immensely	-10.533
▁Dur	-10.5331
▁stock	-10.5332
▁pointless	-10.5334
▁abandoned	-10.5335
▁winning	-10.5336
▁Burt	-10.5339
▁warning	-10.5342
class	-10.5346
▁destroyed	-10.5347
▁colorful	-10.5351
▁kills	-10.5352
▁Your	-10.5356
▁weight	-10.5357
▁bear	-10.536
▁displayed	-10.5366
▁shocked	-10.5368
les	-10.5374
▁la	-10.5374
▁7/10	-10.5376
▁beach	-10.5389
▁traveling	-10.5395
iest	-10.5399
ize	-10.5429
▁anger	-10.5435
▁touched	-10.5435
▁appealing	-10.5445
▁portraying	-10.545
▁press	-10.5464
▁rules	-10.5474
▁sympath	-10.549
▁filming	-10.5491
▁unfolds	-10.5505
▁Fred	-10.5506
▁Muppets	-10.5508
▁closely	-10.5511
▁Sal	-10.5516
dditional	-10.553
ier	-10.5537
▁ta	-10.5546
▁Thanks	-10.5549
ge	-10.5572
▁o	-10.5583
V	-10.5595
▁?	-10.5604
▁hip	-10.5639
▁spell	-10.5646
ung	-10.5648
ri	-10.5673
wards	-10.5674
rd	-10.5688
▁Dian	-10.5692
vin	-10.5724
▁reveal	-10.5727
▁versions	-10.5739
▁Gi	-10.5741
▁hits	-10.5745
▁submarine	-10.5752
▁foot	-10.5754
▁li	-10.5754
▁con	-10.5756
am	-10.5762
mo	-10.5766
▁accidental	-10.5771
▁Edward	-10.5784
▁giant	-10.5786
▁Pie	-10.5787
▁Greek	-10.579
▁tri	-10.5794
▁paper	-10.5798
▁robot	-10.5799
▁Award	-10.58
▁dislike	-10.5808
▁interaction	-10.5812
▁Heart	-10.5814
▁fi	-10.5815
▁Jan	-10.5816
▁expression	-10.5819
▁protagonist	-10.5819
▁sport	-10.582
▁animal	-10.5824
▁demand	-10.5824
▁trick	-10.5825
top	-10.5839
▁performer	-10.5839
9	-10.5841
▁di	-10.5841
▁awards	-10.5844
▁puzzle	-10.5846
▁project	-10.5853
ping	-10.5855
▁Vin	-10.5861
▁ideal	-10.5868
▁cartoons	-10.589
ral	-10.589
id	-10.5928
No	-10.5929
▁hadn	-10.593
▁wind	-10.5934
▁join	-10.5944
▁kn	-10.5953
om	-10.596
▁Joan	-10.5962
▁arm	-10.5967
▁gather	-10.5969
now	-10.597
end	-10.5977
hich	-10.5993
▁fond	-10.5997
▁apparent	-10.6001
▁praise	-10.6007
▁terror	-10.6008
▁ignore	-10.6017
ible	-10.6019
▁Second	-10.6021
▁dig	-10.6025
▁punch	-10.6028
▁happi	-10.603
▁Cinema	-10.6031
▁melodrama	-10.6031
▁chief	-10.6032
▁church	-10.6032
▁horrific	-10.6032
▁Campbell	-10.6032
▁Tarantino	-10.6032
▁glimpse	-10.6032
▁identify	-10.6032
▁polished	-10.6032
▁survival	-10.6032
▁territory	-10.6032
▁universal	-10.6032
▁technology	-10.6032
▁Rhett	-10.6032
▁confusion	-10.6032
▁sweep	-10.6032
▁medical	-10.6032
▁stylish	-10.6032
▁dinner	-10.6032
▁prevent	-10.6032
▁status	-10.6032
▁okay	-10.6032
▁controversial	-10.6032
▁inventive	-10.6032
▁hiding	-10.6032
▁countries	-10.6032
▁puppet	-10.6032
▁Bollywood	-10.6032
▁insight	-10.6033
▁spooky	-10.6033
▁China	-10.6033
▁ugly	-10.6033
▁East	-10.6033
▁breathtaking	-10.6033
▁Father	-10.6033
▁Part	-10.6033
▁caus	-10.6033
▁clip	-10.6033
▁poetic	-10.6033
▁device	-10.6033
▁clothes	-10.6033
▁closing	-10.6034
▁blast	-10.6034
▁adolescent	-10.6034
▁storytelling	-10.6034
▁Turner	-10.6034
▁smooth	-10.6035
▁Murphy	-10.6035
▁striking	-10.6035
▁necessarily	-10.6035
▁Lynch	-10.6035
▁hundred	-10.6035
▁confusing	-10.6035
▁gratuitous	-10.6035
▁Saturday	-10.6035
▁Darkness	-10.6035
▁primarily	-10.6035
▁Nicholson	-10.6035
▁link	-10.6036
▁witch	-10.6036
▁Leno	-10.6036
▁Connery	-10.6036
▁lonely	-10.6037
▁Hunter	-10.6038
▁Kath	-10.6038
▁Beautiful	-10.6039
▁Friday	-10.6039
▁bottom	-10.6039
▁Charley	-10.6039
▁anybody	-10.6039
▁Again	-10.604
▁author	-10.604
▁Irish	-10.604
▁2001	-10.604
▁Emily	-10.6041
▁consequences	-10.6041
▁exploitation	-10.6042
▁engaged	-10.6043
▁nowhere	-10.6043
▁advice	-10.6044
▁Stone	-10.6044
▁Macy	-10.6045
▁sympathy	-10.6048
▁Allen	-10.6049
▁Dave	-10.6049
▁closer	-10.605
▁racial	-10.6052
▁Look	-10.6054
▁Parker	-10.6054
▁scale	-10.6054
▁essentially	-10.6055
▁Barbara	-10.6056
▁spy	-10.606
▁Gay	-10.6061
▁Tyra	-10.6061
▁crafted	-10.6064
▁REAL	-10.6064
▁entertained	-10.6067
going	-10.6069
▁***	-10.607
▁Take	-10.607
▁constantly	-10.6074
▁Sir	-10.6078
▁national	-10.6078
▁Soon	-10.6087
▁accepted	-10.6089
▁referr	-10.6094
▁eight	-10.6094
ite	-10.6094
▁showcase	-10.6095
▁bloody	-10.6109
▁grade	-10.611
▁Lot	-10.6111
▁books	-10.6114
▁performed	-10.612
▁wearing	-10.6121
▁supposedly	-10.6133
▁cares	-10.6155
▁surprises	-10.6161
Donald	-10.617
▁hire	-10.6172
ler	-10.6184
▁Hell	-10.6185
ink	-10.6201
▁separate	-10.621
▁Blade	-10.6215
▁complaints	-10.6218
▁segments	-10.6218
▁arrives	-10.6218
aptain	-10.6226
▁TO	-10.6226
U	-10.6227
▁explicit	-10.6232
▁abuse	-10.6232
▁ranks	-10.6234
▁animals	-10.625
▁performers	-10.6253
▁span	-10.6271
▁friendly	-10.6277
▁devot	-10.6285
H	-10.6289
▁thirst	-10.6298
lie	-10.6315
▁Are	-10.6327
▁Col	-10.6355
oogie	-10.6355
my	-10.6366
▁1980	-10.6369
▁r	-10.6373
▁fat	-10.6397
▁topic	-10.6403
▁extras	-10.6417
▁ho	-10.6423
▁struggl	-10.6423
io	-10.6438
▁murders	-10.6439
▁entertain	-10.6448
▁replace	-10.6464
▁kicks	-10.6467
▁:	-10.6482
▁cla	-10.6491
▁gas	-10.6495
real	-10.6505
Do	-10.6511
ization	-10.6519
▁broadcast	-10.6526
can	-10.6542
ware	-10.6544
▁highlight	-10.6546
▁serial	-10.6553
▁homosexual	-10.6554
▁bond	-10.6555
▁n	-10.6558
▁jerk	-10.6559
▁reference	-10.6566
▁Sound	-10.6566
▁section	-10.6572
magine	-10.6575
▁lift	-10.6576
▁Carpenter	-10.6577
▁tie	-10.6578
▁landscape	-10.6579
▁conversation	-10.6583
▁Muppet	-10.6588
▁unfold	-10.6589
▁San	-10.659
▁Dev	-10.659
▁dancer	-10.6594
▁giv	-10.6594
▁surrounding	-10.6595
▁folk	-10.6596
▁card	-10.6597
▁rank	-10.66
▁talks	-10.6621
▁Bette	-10.6639
▁Far	-10.6639
▁Fe	-10.6645
ah	-10.6646
captured	-10.6661
com	-10.668
▁Liv	-10.6684
▁hi	-10.6693
▁ver	-10.6693
itch	-10.6707
▁causes	-10.6734
▁Australia	-10.6736
Just	-10.6741
Of	-10.6745
With	-10.6746
Even	-10.6746
un	-10.6753
▁golf	-10.6754
▁General	-10.6764
▁expert	-10.6766
▁profound	-10.6768
▁tremendous	-10.6769
▁mental	-10.6771
▁careful	-10.6773
▁IN	-10.6777
▁intrigue	-10.6779
▁stole	-10.6781
▁cure	-10.6783
▁significant	-10.6783
▁agrees	-10.6785
creating	-10.6793
▁distinct	-10.6799
▁multiple	-10.68
▁charisma	-10.6801
▁Breillat	-10.6801
▁Ouimet	-10.6801
▁communicate	-10.6801
▁jazz	-10.6801
▁ourselves	-10.6801
▁precise	-10.6801
▁recognition	-10.6801
▁relevant	-10.6801
▁reputation	-10.6801
▁ruthless	-10.6801
▁subsequent	-10.6801
▁qualities	-10.6801
▁rescue	-10.6801
▁vivid	-10.6801
▁library	-10.6801
▁mixture	-10.6801
▁rural	-10.6801
▁trilogy	-10.6801
▁Veronika	-10.6801
▁Vinay	-10.6801
▁rapid	-10.6801
▁prize	-10.6801
▁Sunday	-10.6801
▁borrow	-10.6801
▁tree	-10.6801
▁existence	-10.6802
▁documentaries	-10.6802
▁eerie	-10.6802
▁Marshall	-10.6802
▁Jewel	-10.6802
▁summary	-10.6802
▁Liu	-10.6802
▁identity	-10.6802
▁corruption	-10.6802
▁Piper	-10.6802
▁baseball	-10.6802
▁17	-10.6802
▁1930	-10.6802
▁passionate	-10.6802
▁cynical	-10.6802
▁firm	-10.6802
▁deny	-10.6803
▁sadistic	-10.6803
▁staff	-10.6804
▁Anthony	-10.6804
▁Vijay	-10.6804
▁attraction	-10.6804
▁Kennedy	-10.6804
▁Shearer	-10.6804
▁Hitler	-10.6804
▁honor	-10.6804
▁gritty	-10.6804
▁Judge	-10.6804
▁revolutionary	-10.6804
▁Italy	-10.6804
▁choreography	-10.6805
▁cried	-10.6805
▁invite	-10.6805
▁assistant	-10.6805
▁betrayal	-10.6805
▁disturbed	-10.6806
▁Q	-10.6806
▁Lady	-10.6806
▁happiness	-10.6806
▁pathetic	-10.6807
▁overdone	-10.6807
dom	-10.6807
▁wealthy	-10.6808
▁Amazing	-10.6808
▁Bruno	-10.6808
▁dubbed	-10.6808
▁satisfied	-10.6808
▁Sci	-10.6808
▁Eye	-10.6809
▁amazed	-10.6809
▁selfish	-10.681
▁understood	-10.681
how	-10.6812
▁hysterical	-10.6813
▁extended	-10.6814
rate	-10.6814
▁limited	-10.6817
▁counter	-10.6817
▁Horror	-10.6818
▁Murder	-10.6818
▁neck	-10.6818
▁somebody	-10.6818
▁Seven	-10.6818
▁reminiscen	-10.6818
▁brand	-10.6818
▁Over	-10.6819
▁heck	-10.682
▁CD	-10.682
▁disgusting	-10.6821
▁rental	-10.6822
▁stolen	-10.6822
▁explore	-10.6824
▁Given	-10.6825
▁perfection	-10.6825
▁shy	-10.6827
▁achieved	-10.683
▁Nothing	-10.6833
▁constructed	-10.6837
▁grave	-10.6838
▁Fame	-10.6843
▁Was	-10.6844
▁Returns	-10.6862
▁miles	-10.6863
▁revealing	-10.6863
robably	-10.6867
▁Sa	-10.6875
▁wise	-10.6877
▁directly	-10.6882
ipping	-10.6895
▁lyrics	-10.6897
ice	-10.6904
▁returned	-10.6912
▁persona	-10.6912
▁depend	-10.6914
▁Meg	-10.692
▁Play	-10.693
▁Justin	-10.6951
▁returning	-10.6959
▁focused	-10.6965
king	-10.697
▁stealing	-10.6971
▁po	-10.6979
▁notch	-10.6982
▁lacks	-10.7
▁More	-10.7002
istic	-10.7009
▁guide	-10.7009
▁Luk	-10.7019
▁guns	-10.7023
▁breath	-10.7023
▁pack	-10.7029
▁lo	-10.7031
▁doll	-10.7036
▁education	-10.7036
They	-10.706
▁decades	-10.7073
they	-10.7075
iness	-10.7116
cing	-10.7127
▁sings	-10.714
▁demons	-10.7144
▁strip	-10.7149
▁Germans	-10.7152
▁artists	-10.7163
▁includes	-10.7168
▁Ted	-10.7197
▁argue	-10.7199
▁notable	-10.7203
▁generations	-10.7235
▁struggles	-10.725
▁disappoint	-10.7258
boy	-10.7262
▁Li	-10.7272
▁Ron	-10.7278
ong	-10.7315
▁flow	-10.7329
▁blonde	-10.7364
▁Monster	-10.7369
▁ghost	-10.7371
▁Number	-10.7386
▁scare	-10.739
`	-10.7398
▁arrive	-10.7398
▁secrets	-10.74
La	-10.7401
▁Soviet	-10.7407
▁murderer	-10.7409
▁hu	-10.741
▁define	-10.7416
▁finger	-10.7418
▁nightmare	-10.7421
▁segment	-10.7421
rn	-10.7431
▁badly	-10.7431
▁winner	-10.7433
▁helping	-10.7436
▁casual	-10.7451
▁complaint	-10.7484
▁ran	-10.7494
body	-10.7505
▁du	-10.7511
▁Jo	-10.7515
called	-10.7522
▁Too	-10.753
▁k	-10.7537
▁pet	-10.755
▁Rad	-10.7552
▁destroy	-10.7554
▁seasons	-10.7558
ad	-10.7565
style	-10.7569
bad	-10.7575
Why	-10.7578
includ	-10.7579
Watch	-10.7579
Michael	-10.7579
▁Iron	-10.7581
otic	-10.7585
also	-10.7586
▁Rob	-10.7587
ville	-10.7593
▁inhabit	-10.7595
▁exquisite	-10.7598
face	-10.7599
▁occasional	-10.7604
▁proper	-10.7611
??	-10.7611
▁11	-10.7616
▁charge	-10.7616
Not	-10.7618
▁consist	-10.7622
▁collect	-10.7625
▁horribl	-10.7625
6	-10.7627
▁progress	-10.7628
▁experiment	-10.763
▁convict	-10.7633
▁jealous	-10.7633
▁Bullock	-10.7635
▁Robespierre	-10.7635
▁GREAT	-10.7635
▁Halloween	-10.7635
▁President	-10.7635
▁Ramón	-10.7635
▁Special	-10.7635
▁category	-10.7635
▁machine	-10.7635
▁propaganda	-10.7635
▁simplicity	-10.7635
▁Douglas	-10.7635
▁extent	-10.7635
▁nowadays	-10.7635
▁stunned	-10.7635
▁distant	-10.7635
▁transport	-10.7635
▁court	-10.7635
▁embrace	-10.7635
▁unrealistic	-10.7635
▁variety	-10.7635
▁Mishima	-10.7635
▁blind	-10.7635
▁steam	-10.7635
▁liking	-10.7635
▁merit	-10.7635
▁task	-10.7635
▁intimate	-10.7635
▁sinister	-10.7635
▁Would	-10.7635
▁private	-10.7635
▁household	-10.7635
▁importance	-10.7635
▁boast	-10.7636
▁bodies	-10.7636
▁Huston	-10.7636
▁massive	-10.7637
▁unfair	-10.7637
▁journalist	-10.7637
▁Alone	-10.7637
▁feet	-10.7637
▁definition	-10.7637
▁Kieslowski	-10.7638
▁Sosuke	-10.7638
▁kudo	-10.7638
▁nostalgic	-10.7638
▁wicked	-10.7638
▁Devito	-10.7638
▁flesh	-10.7638
▁entry	-10.7638
▁Samuel	-10.7638
▁chair	-10.7638
▁outrageous	-10.7638
▁loyalty	-10.7638
▁Taylor	-10.7638
▁scheme	-10.7638
▁Later	-10.7638
▁Claude	-10.7638
▁unbelievable	-10.7639
▁Anderson	-10.7639
▁Dick	-10.7639
▁Monty	-10.7639
▁Four	-10.764
▁Boone	-10.764
▁Actor	-10.764
▁Shaw	-10.7641
▁assist	-10.7641
▁thin	-10.7641
▁price	-10.7641
▁mistress	-10.7642
▁Rupert	-10.7642
▁depressing	-10.7642
▁Basically	-10.7642
▁Plus	-10.7643
▁Police	-10.7643
▁Hudson	-10.7643
▁innovative	-10.7643
▁Therefore	-10.7643
▁Home	-10.7643
▁Johnson	-10.7643
▁Amar	-10.7643
▁gentle	-10.7643
▁Jerry	-10.7643
▁Blair	-10.7643
▁Frankie	-10.7643
▁cancer	-10.7646
▁Kim	-10.7647
▁Jackass	-10.7648
▁vice	-10.7649
▁spoken	-10.7649
▁improved	-10.765
▁upper	-10.765
▁chick	-10.7651
▁Please	-10.7651
▁Golden	-10.7653
▁accomplished	-10.7655
▁warned	-10.7657
▁25	-10.7658
▁upset	-10.7659
▁instantly	-10.7659
▁Loy	-10.7662
▁react	-10.7663
▁Simpsons	-10.7664
sterix	-10.7664
▁Wind	-10.7667
▁properly	-10.7667
▁gory	-10.7667
▁oh	-10.7668
▁Green	-10.7669
▁riding	-10.7669
▁Following	-10.767
THE	-10.7673
▁Did	-10.7676
▁circumstances	-10.7682
▁core	-10.7684
▁table	-10.7687
▁matters	-10.769
ife	-10.7697
▁dogs	-10.7702
▁Dori	-10.7702
▁Pam	-10.7704
▁broad	-10.7706
▁discovery	-10.7707
▁Land	-10.7708
cent	-10.7718
▁related	-10.7719
▁successfully	-10.7727
▁minds	-10.7728
▁unlikely	-10.7729
▁citizens	-10.7734
▁painful	-10.7743
▁Ann	-10.7745
▁Ka	-10.7746
▁watchable	-10.7746
▁dollars	-10.7759
00	-10.7767
▁shorter	-10.7776
▁harder	-10.7778
▁Angels	-10.7781
▁focuse	-10.7783
▁Waters	-10.7796
▁spin	-10.7804
▁lie	-10.7812
▁Row	-10.7823
▁van	-10.7827
▁blame	-10.7832
Tom	-10.7845
teen	-10.7852
key	-10.7877
▁Williams	-10.7886
▁wasted	-10.7892
zy	-10.7923
▁fights	-10.7925
▁comical	-10.7945
▁Kate	-10.7945
▁cameos	-10.7953
▁Set	-10.7956
movies	-10.7957
▁observe	-10.7957
▁cruel	-10.7968
▁guessing	-10.797
Don	-10.7972
▁sav	-10.7983
bout	-10.7988
▁Fu	-10.8003
▁rely	-10.801
▁premiere	-10.8018
em	-10.802
zen	-10.802
▁enters	-10.803
▁hopes	-10.8035
▁torture	-10.8038
▁Si	-10.8041
ho	-10.8054
▁mini	-10.8058
▁pin	-10.806
ul	-10.8082
▁skills	-10.8087
▁hearted	-10.8097
dding	-10.8103
▁individuals	-10.8111
▁im	-10.8141
▁notes	-10.8148
nce	-10.8156
▁size	-10.8205
Fro	-10.8209
▁report	-10.8216
▁tracks	-10.8226
▁cases	-10.825
▁magazine	-10.8266
▁programme	-10.8266
▁advantage	-10.8269
▁green	-10.8275
▁burn	-10.8287
▁tele	-10.8287
▁flaw	-10.8294
▁album	-10.8296
▁Street	-10.8296
▁meat	-10.8297
▁indie	-10.8299
▁handle	-10.8303
▁lifestyle	-10.8306
▁detract	-10.8308
▁connection	-10.831
▁installment	-10.8319
▁letter	-10.8323
▁fault	-10.8326
▁motivation	-10.8327
where	-10.8332
▁creature	-10.8332
▁Nazi	-10.8333
▁gag	-10.8335
▁stranger	-10.8335
▁quit	-10.8337
ters	-10.835
▁commit	-10.835
per	-10.8353
mate	-10.8357
**	-10.8361
▁Time	-10.8361
▁Art	-10.8378
▁greatly	-10.8383
ze	-10.8414
eyed	-10.8415
more	-10.8423
▁dimension	-10.8433
▁dealer	-10.8441
film	-10.8442
mond	-10.8442
▁Bad	-10.8447
▁Pr	-10.8451
▁research	-10.8457
▁sum	-10.8461
paced	-10.8462
▁transform	-10.8477
Northfork	-10.8484
live	-10.8484
great	-10.8485
grade	-10.8486
Unfortunately	-10.8487
Big	-10.8487
except	-10.8487
Paul	-10.8488
James	-10.8488
horror	-10.8488
based	-10.8488
Though	-10.849
known	-10.8491
about	-10.8495
metal	-10.8498
▁park	-10.8499
▁fix	-10.8499
▁heroin	-10.8499
She	-10.85
▁condemn	-10.8502
▁wor	-10.8504
master	-10.8505
▁imaginative	-10.8506
▁Nation	-10.8507
Yes	-10.8511
▁presents	-10.8521
▁Graham	-10.8528
▁assassin	-10.853
▁Box	-10.8537
▁Page	-10.8537
▁stretch	-10.8538
▁Prince	-10.8539
▁glass	-10.854
▁nine	-10.8541
▁profession	-10.8543
▁fift	-10.8543
cient	-10.8543
▁Denn	-10.8543
▁California	-10.8544
▁garbage	-10.8544
”	-10.8544
▁AIDS	-10.8544
▁Flatliners	-10.8544
▁Riddick	-10.8544
▁Suyin	-10.8544
▁empty	-10.8544
▁glory	-10.8544
▁horrifying	-10.8544
▁infamous	-10.8544
▁irritating	-10.8544
▁mediocre	-10.8544
▁ocean	-10.8544
▁portrait	-10.8544
▁response	-10.8544
▁scenario	-10.8544
▁substance	-10.8544
▁undoubtedly	-10.8544
▁afford	-10.8544
▁Chicago	-10.8544
▁facing	-10.8544
▁rabbit	-10.8544
▁Mormon	-10.8544
▁contrary	-10.8544
▁evoke	-10.8544
▁excitement	-10.8544
▁popcorn	-10.8544
▁kidnapping	-10.8544
▁naive	-10.8544
▁Cassavetes	-10.8544
▁narration	-10.8544
▁basis	-10.8544
▁supernatural	-10.8544
▁PBS	-10.8544
▁false	-10.8544
▁Momma	-10.8544
▁Norton	-10.8544
▁dropped	-10.8544
▁uncle	-10.8544
▁ladies	-10.8544
▁Arnold	-10.8544
▁vast	-10.8544
▁sublime	-10.8544
▁incest	-10.8545
▁fought	-10.8545
▁dignity	-10.8545
▁captivated	-10.8545
▁captain	-10.8545
▁daring	-10.8545
▁insane	-10.8545
▁Atlantic	-10.8546
▁slick	-10.8546
▁similarities	-10.8546
▁combine	-10.8546
▁irony	-10.8546
▁Catherine	-10.8547
▁Civil	-10.8547
▁Depardieu	-10.8547
▁EIGHTEEN	-10.8547
▁MGM	-10.8547
▁Miyazaki	-10.8547
▁Stanwyck	-10.8547
▁Webb	-10.8547
▁nonetheless	-10.8547
▁Catwoman	-10.8547
▁lawyer	-10.8547
▁Code	-10.8547
▁Lisa	-10.8547
▁Melville	-10.8547
▁Todd	-10.8547
▁THIS	-10.8547
▁cash	-10.8548
▁trail	-10.8548
▁Angela	-10.8549
▁gain	-10.8549
▁Carrie	-10.8549
▁everywhere	-10.8549
▁cuts	-10.8551
▁Rory	-10.8552
▁endearing	-10.8552
▁et	-10.8552
▁offensive	-10.8552
▁Aaron	-10.8552
▁Jesus	-10.8552
▁sexuality	-10.8552
▁Diesel	-10.8552
▁tall	-10.8552
▁Deep	-10.8553
▁Knight	-10.8553
▁shortcomings	-10.8555
▁Nice	-10.8556
▁surrounded	-10.8556
▁Simon	-10.8557
▁wedding	-10.8558
▁consistent	-10.8558
▁thumbs	-10.8559
▁Fields	-10.8559
stop	-10.8559
▁Super	-10.8561
▁doomed	-10.8563
▁wanna	-10.8563
▁Monkees	-10.8563
▁Worth	-10.8564
▁feed	-10.8564
▁below	-10.8569
▁Back	-10.8571
▁Beth	-10.8578
▁African	-10.8578
▁Ke	-10.8579
▁sky	-10.858
▁Force	-10.8581
something	-10.8583
▁connected	-10.8584
▁Finn	-10.8587
▁carefully	-10.8588
▁dismiss	-10.8588
▁faster	-10.8589
▁exceptionally	-10.8591
▁pity	-10.8591
wagon	-10.8591
▁Cobb	-10.8594
▁introduced	-10.8595
▁existed	-10.8596
▁rolled	-10.8601
▁disappointing	-10.8607
▁sun	-10.8623
▁para	-10.8623
▁delivered	-10.8625
▁unexpectedly	-10.8626
acial	-10.8631
▁tank	-10.8637
▁escaped	-10.8637
▁Adam	-10.8639
▁pleased	-10.864
kin	-10.8649
▁introduce	-10.8649
▁stunts	-10.8659
ent	-10.8663
▁believes	-10.8664
UST	-10.8665
▁couples	-10.8669
▁walked	-10.8671
▁demonstrates	-10.8672
beat	-10.8683
▁Wood	-10.8686
▁king	-10.8694
▁offering	-10.8701
▁crying	-10.8711
▁beating	-10.8721
▁grim	-10.8737
▁greatness	-10.8747
ard	-10.8772
ST	-10.8781
▁Des	-10.8824
▁expressions	-10.8829
▁productions	-10.8841
▁Sea	-10.8846
▁stays	-10.8858
▁welcome	-10.8892
▁Lind	-10.8892
▁classics	-10.8908
▁Real	-10.8909
ute	-10.891
▁flash	-10.8911
▁adopt	-10.8911
▁promises	-10.8917
▁Wing	-10.8928
▁caring	-10.8958
▁sweat	-10.896
▁viewings	-10.8969
▁min	-10.9012
▁ear	-10.9015
▁disappear	-10.9043
▁putt	-10.9045
▁Luci	-10.905
▁accents	-10.9065
▁Carol	-10.9069
▁Fat	-10.9074
▁teache	-10.9089
▁sentimental	-10.9091
▁prepare	-10.9105
▁appearances	-10.9109
▁****	-10.9109
▁lessons	-10.9111
▁Cha	-10.9115
▁bomb	-10.9124
▁critic	-10.9128
▁comfort	-10.9138
▁Men	-10.914
Fi	-10.9164
lew	-10.9168
X	-10.9227
▁Swa	-10.9227
▁Gar	-10.9229
▁reache	-10.9232
lon	-10.9246
▁rape	-10.9249
▁essential	-10.9263
▁Canadian	-10.9266
▁frustration	-10.9266
▁execution	-10.9266
▁holiday	-10.9266
▁bump	-10.9268
▁icon	-10.9274
▁IT	-10.9277
▁newly	-10.9307
▁Matthew	-10.9308
▁phrase	-10.9308
▁Picture	-10.9315
▁nerve	-10.9315
▁sitcom	-10.9316
▁clue	-10.9325
driven	-10.9327
rey	-10.9329
▁technique	-10.9332
▁quote	-10.9332
▁flashback	-10.9334
▁Bed	-10.9336
▁wave	-10.9337
2	-10.9337
aked	-10.934
tte	-10.9349
rid	-10.935
TV	-10.9372
ten	-10.9376
▁rule	-10.9382
▁pan	-10.9383
▁lay	-10.9402
uous	-10.9402
▁Na	-10.9408
▁fulfill	-10.9412
ify	-10.9413
"...	-10.9419
think	-10.9423
▁Lu	-10.9436
EST	-10.9443
▁Dee	-10.9456
▁Earl	-10.9458
ified	-10.9461
▁correct	-10.9461
▁responsib	-10.9464
▁photo	-10.9464
▁aid	-10.9468
after	-10.9473
▁lame	-10.9473
▁Del	-10.9475
Stalingrad	-10.9482
room	-10.9484
Check	-10.9484
provoking	-10.9485
Night	-10.9487
comedy	-10.9488
when	-10.9488
Cat	-10.949
▁areas	-10.9491
Still	-10.9493
▁Lauren	-10.9493
Mr	-10.9501
▁nation	-10.9501
▁lend	-10.9503
will	-10.9504
▁connect	-10.9509
▁defend	-10.9512
▁floor	-10.9514
▁mode	-10.9518
▁guarantee	-10.9521
▁spare	-10.9523
▁broke	-10.9523
▁chances	-10.9531
▁interpret	-10.9532
▁screening	-10.9537
▁forgive	-10.954
▁Morgan	-10.9541
▁logic	-10.9543
Caddyshack	-10.9544
▁Aussie	-10.9544
▁Bahrani	-10.9544
▁Connection	-10.9544
▁Eagle	-10.9544
▁Ichikawa	-10.9544
▁Jimmie	-10.9544
▁Lestat	-10.9544
▁controversy	-10.9544
▁dazzl	-10.9544
▁emphasis	-10.9544
▁marvellous	-10.9544
▁riveting	-10.9544
▁voyage	-10.9544
▁loneliness	-10.9544
▁Bronson	-10.9544
▁Montana	-10.9544
▁Twilight	-10.9544
▁financial	-10.9544
▁Columbia	-10.9544
▁Hoffman	-10.9544
▁applaud	-10.9544
▁piano	-10.9544
▁trend	-10.9544
▁vague	-10.9544
▁Leigh	-10.9544
▁disbelief	-10.9544
▁intricate	-10.9544
▁jungle	-10.9544
▁prime	-10.9544
▁Custer	-10.9544
▁Gilmore	-10.9544
▁splendid	-10.9544
▁nuance	-10.9544
▁email	-10.9544
▁executive	-10.9544
▁Austin	-10.9544
▁dysfunctional	-10.9544
▁Felix	-10.9544
▁grandfather	-10.9544
▁label	-10.9544
▁elder	-10.9544
▁paid	-10.9544
▁notorious	-10.9544
▁Astin	-10.9544
▁easier	-10.9544
▁laid	-10.9544
▁chasing	-10.9544
▁widescreen	-10.9544
▁duty	-10.9544
▁quirky	-10.9545
▁adorable	-10.9545
▁Barney	-10.9545
▁Shir	-10.9545
▁winter	-10.9545
▁specifically	-10.9545
▁worthwhile	-10.9546
▁dramas	-10.9546
▁Plain	-10.9546
▁urge	-10.9546
▁shout	-10.9546
By	-10.9546
▁vein	-10.9546
▁Book	-10.9546
▁Hurt	-10.9547
▁loyal	-10.9547
▁loan	-10.9547
▁subtlety	-10.9547
▁Besson	-10.9547
▁ego	-10.9547
▁astounding	-10.9547
▁“	-10.9547
▁Dorothy	-10.9547
▁Seinfeld	-10.9547
▁stellar	-10.9547
▁Craig	-10.9547
▁Barker	-10.9547
▁disabled	-10.9547
▁crude	-10.9547
▁Penguin	-10.9547
▁Mickey	-10.9547
▁1960	-10.9547
▁eager	-10.9547
▁edition	-10.9548
▁pressure	-10.9548
▁Jacobi	-10.9548
▁comfortable	-10.9548
▁Chow	-10.9548
▁Grace	-10.9548
notch	-10.9548
▁frankly	-10.9549
▁pants	-10.9549
▁determined	-10.9549
▁canceled	-10.955
▁dreadful	-10.955
▁affection	-10.955
▁pray	-10.955
▁complexity	-10.955
▁elegant	-10.9551
▁morality	-10.9552
▁Korean	-10.9552
▁Through	-10.9552
▁Erika	-10.9552
▁Wonderful	-10.9552
▁option	-10.9552
▁redeem	-10.9553
▁Brilliant	-10.9553
▁Memento	-10.9553
▁Summer	-10.9553
▁changing	-10.9553
▁dynamic	-10.9553
▁VERY	-10.9553
▁Hayworth	-10.9553
▁Laura	-10.9553
▁disaster	-10.9553
stood	-10.9555
▁credible	-10.9555
▁Carmen	-10.9555
▁Hawn	-10.9556
▁Full	-10.9556
▁Luc	-10.9556
▁attend	-10.9556
▁warmth	-10.9557
▁Sharky	-10.9557
▁heroic	-10.9557
▁granted	-10.9557
▁Matt	-10.9558
▁Mother	-10.9558
▁sole	-10.9559
▁Moon	-10.9559
▁composer	-10.9559
▁Rachel	-10.9559
▁Rainbow	-10.9559
▁thankfully	-10.956
▁inspiration	-10.956
▁Wow	-10.956
▁arguably	-10.9561
▁Definitely	-10.9561
▁Lili	-10.9564
▁Recommended	-10.9565
▁insist	-10.9567
▁anime	-10.9567
▁Give	-10.9568
▁Does	-10.9569
▁Planet	-10.957
▁darkness	-10.9571
▁Andrea	-10.9572
ternal	-10.9574
▁Besides	-10.9578
▁painting	-10.9578
▁Song	-10.9579
▁busy	-10.9583
▁revol	-10.9583
▁overcome	-10.9585
▁craft	-10.9587
▁ST	-10.9588
▁Brad	-10.9588
▁lifetime	-10.9589
▁Come	-10.959
▁Roy	-10.9592
▁rage	-10.9594
ca	-10.9604
▁mentally	-10.9608
▁brave	-10.9614
▁pushed	-10.9619
▁Chase	-10.9621
▁web	-10.9621
▁dressed	-10.9623
▁Sally	-10.9623
▁Years	-10.9625
eep	-10.9626
▁paranoia	-10.963
▁inspiring	-10.963
ess	-10.9631
▁mu	-10.9636
▁settle	-10.964
▁leg	-10.964
izzy	-10.9643
led	-10.9652
▁completed	-10.9652
▁stronger	-10.9659
▁sacrifice	-10.9666
▁Virgin	-10.9669
ola	-10.9671
▁imagined	-10.9671
ya	-10.9703
▁Rose	-10.9707
▁catching	-10.9711
▁Dad	-10.9713
▁aboard	-10.9734
▁forty	-10.9734
▁steps	-10.9736
▁conditions	-10.9742
▁Jud	-10.9765
ome	-10.9774
▁oppos	-10.9799
▁primar	-10.9803
▁Rome	-10.981
▁nightmares	-10.9813
▁importantly	-10.9815
His	-10.9816
▁Gu	-10.9819
▁opened	-10.983
▁messages	-10.9831
imi	-10.9834
▁highlights	-10.9838
ike	-10.9842
!).	-10.9846
▁tricks	-10.986
▁stops	-10.9873
▁bu	-10.9874
ated	-10.9877
▁forms	-10.9882
IG	-10.9883
▁challenges	-10.9885
▁bust	-10.9926
▁Has	-10.9947
▁Cat	-10.9966
ility	-10.9968
▁classical	-10.9979
▁Westerns	-10.9979
▁concerns	-10.9981
fu	-10.9981
▁refus	-10.9997
▁wa	-11.0007
***	-11.0015
▁travels	-11.0017
▁sons	-11.0023
▁suggests	-11.0029
▁suitabl	-11.0044
▁releases	-11.0072
tically	-11.0073
che	-11.0076
▁mus	-11.0079
head	-11.0088
LE	-11.0088
ac	-11.0094
art	-11.0094
▁Les	-11.0095
▁captur	-11.0103
▁Th	-11.0104
▁qua	-11.0115
▁contribute	-11.0121
shi	-11.0122
▁Mad	-11.0123
mber	-11.0128
..."	-11.0163
▁Camero	-11.0165
▁shortly	-11.0183
▁pointed	-11.0184
▁Tri	-11.0192
▁Christ	-11.0201
▁westerns	-11.0202
▁opinions	-11.0209
7	-11.0213
Z	-11.0217
▁horses	-11.0219
▁Per	-11.022
▁stumble	-11.0222
mi	-11.0231
▁adventures	-11.0235
cat	-11.0244
▁Ol	-11.0254
▁Andy	-11.026
▁wins	-11.0281
ake	-11.0284
▁ne	-11.0287
▁promote	-11.029
minded	-11.0298
▁separat	-11.0318
educational	-11.0327
tty	-11.0336
Whatever	-11.0361
▁souls	-11.0375
▁architect	-11.0378
▁Wil	-11.0378
▁companion	-11.0378
▁stomach	-11.0378
▁jewel	-11.0378
▁revelation	-11.0379
▁teens	-11.038
pan	-11.0381
ological	-11.0381
▁solve	-11.0382
▁buff	-11.0396
▁uniform	-11.0407
▁influence	-11.0408
▁montage	-11.0411
▁principal	-11.0419
▁rival	-11.0422
done	-11.0422
▁official	-11.0426
▁triumph	-11.0426
▁tap	-11.0428
▁incident	-11.0428
▁sailor	-11.0429
▁reporter	-11.0429
▁Sister	-11.0435
▁respond	-11.0435
▁movement	-11.044
▁trademark	-11.0441
▁Water	-11.0441
▁Ar	-11.0443
▁month	-11.0444
ir	-11.0444
eath	-11.0448
▁condition	-11.045
▁Bel	-11.0456
▁demonstrat	-11.0467
ide	-11.0467
▁settings	-11.0471
han	-11.0472
though	-11.0477
8)	-11.0487
▁2005	-11.0488
RE	-11.049
characterization	-11.0492
▁sequels	-11.0496
arts	-11.0497
▁suck	-11.0499
▁Call	-11.0504
▁Cost	-11.0509
CE	-11.0511
▁cr	-11.0512
▁Regi	-11.0521
ence	-11.053
▁rights	-11.053
▁sometime	-11.0535
name	-11.0546
▁plant	-11.0558
▁command	-11.056
▁Air	-11.0564
ought	-11.0566
First	-11.0567
▁trap	-11.0584
▁Ne	-11.0593
liners	-11.0596
point	-11.0597
Stephen	-11.0597
Jean	-11.0598
girlfriend	-11.0598
Good	-11.0599
Alice	-11.0599
Also	-11.0599
wide	-11.0599
ello	-11.0599
Along	-11.06
around	-11.06
10/10	-11.0601
▁Pi	-11.0607
▁address	-11.0609
▁discuss	-11.0613
▁neat	-11.0615
sley	-11.0615
▁Jer	-11.0619
▁exact	-11.0625
▁Bu	-11.0626
▁silence	-11.0628
▁unfortunate	-11.0628
▁damn	-11.0628
▁mob	-11.0629
ris	-11.0632
▁divorce	-11.0632
aught	-11.0633
▁Fan	-11.0635
▁guilt	-11.0639
▁blond	-11.0639
▁introduc	-11.0642
IGHT	-11.0643
▁heavi	-11.0645
Bo	-11.0647
▁threat	-11.0651
▁skip	-11.0655
abilities	-11.0655
pocalyp	-11.0655
▁October	-11.0655
▁Technicolor	-11.0655
▁Amudha	-11.0655
▁Company	-11.0655
▁Gershwin	-11.0655
▁Huppert	-11.0655
▁Naturally	-11.0655
▁Peebles	-11.0655
▁Shepitko	-11.0655
▁Stefan	-11.0655
▁arrogant	-11.0655
▁astronaut	-11.0655
▁blatant	-11.0655
▁complications	-11.0655
▁concentrate	-11.0655
▁creativity	-11.0655
▁enemies	-11.0655
▁evident	-11.0655
▁hesitate	-11.0655
▁mesmerizing	-11.0655
▁pregnant	-11.0655
▁redemption	-11.0655
▁schedule	-11.0655
▁terribly	-11.0655
▁vignettes	-11.0655
▁Brynner	-11.0655
▁Fozzie	-11.0655
▁Reagan	-11.0655
▁combat	-11.0655
▁/>9/10	-11.0655
▁Falk	-11.0655
▁Vincenzo	-11.0655
▁Putney	-11.0655
▁delicate	-11.0655
▁Sidney	-11.0655
▁website	-11.0655
▁medium	-11.0655
▁Florida	-11.0655
▁1990	-11.0655
▁Venice	-11.0655
▁delicious	-11.0655
▁romp	-11.0655
▁micro	-11.0655
▁Sunny	-11.0655
▁Mendes	-11.0655
▁exchange	-11.0655
▁Roger	-11.0655
▁volume	-11.0655
▁2002	-11.0655
▁random	-11.0655
▁static	-11.0655
▁Woman	-11.0655
▁Character	-11.0655
▁Hood	-11.0655
▁enlist	-11.0655
▁Santa	-11.0656
▁roof	-11.0656
▁translation	-11.0656
▁illustrate	-11.0656
▁resort	-11.0656
▁swear	-11.0656
Next	-11.0656
▁100%	-11.0656
▁supreme	-11.0656
▁unhappy	-11.0656
▁agency	-11.0656
▁hardcore	-11.0656
▁devil	-11.0656
▁Cox	-11.0656
▁harmless	-11.0656
Crossfire	-11.0656
▁emerge	-11.0656
▁jaded	-11.0656
▁duo	-11.0656
▁investigation	-11.0657
▁fifties	-11.0657
▁meaningful	-11.0657
▁sophisticated	-11.0657
▁Sheba	-11.0657
▁differ	-11.0658
▁Mitch	-11.0659
▁passage	-11.0659
▁shining	-11.0659
▁Greystoke	-11.0659
▁Machine	-11.0659
▁Sjöström	-11.0659
▁blockbuster	-11.0659
▁challenging	-11.0659
▁gradually	-11.0659
▁mirror	-11.0659
▁Ledger	-11.0659
▁fascinat	-11.0659
▁widow	-11.0659
▁frustrated	-11.0659
▁Boyle	-11.0659
▁glorious	-11.0659
▁struck	-11.0659
▁Mitchell	-11.0659
▁philosophical	-11.0659
▁thug	-11.0659
▁chronological	-11.0659
▁Vito	-11.0659
▁NY	-11.066
▁mill	-11.066
▁illness	-11.066
▁Rita	-11.066
▁countryside	-11.066
▁Liz	-11.066
▁Daniel	-11.066
▁accompanie	-11.0661
▁Showtime	-11.0661
▁goofy	-11.0662
▁Run	-11.0663
▁Brain	-11.0663
▁divide	-11.0663
▁Gere	-11.0664
▁wider	-11.0665
▁generate	-11.0665
▁moon	-11.0665
▁Actually	-11.0665
▁homage	-11.0666
▁standout	-11.0666
▁Major	-11.0666
▁Personally	-11.0667
layered	-11.0667
▁Cannes	-11.0668
▁dinosaurs	-11.0669
▁limitations	-11.0669
▁14	-11.067
▁amateur	-11.067
▁acclaimed	-11.067
▁Apes	-11.0671
▁Glen	-11.0671
▁overwhelming	-11.0672
▁acceptable	-11.0672
▁rewarding	-11.0672
▁skateboard	-11.0672
▁admittedly	-11.0672
▁Apparently	-11.0672
▁Gerald	-11.0673
▁Truly	-11.0676
▁Holly	-11.0676
rene	-11.0678
▁Amos	-11.0679
▁resembl	-11.068
▁sail	-11.0681
▁health	-11.0683
▁digital	-11.0684
▁Read	-11.0684
▁beloved	-11.0685
▁Meanwhile	-11.0686
▁Shot	-11.0687
▁manager	-11.0687
▁frequently	-11.0688
▁Die	-11.0688
▁Have	-11.069
▁Nick	-11.069
▁Away	-11.0692
ise	-11.0692
▁Rae	-11.0692
▁screaming	-11.0693
▁stereotypes	-11.0695
▁candy	-11.0695
razy	-11.0695
▁tackle	-11.0696
saw	-11.0696
▁adapted	-11.0698
▁understandable	-11.0699
▁weave	-11.0699
▁convinced	-11.07
▁required	-11.0702
▁flawed	-11.0702
▁Ken	-11.0702
▁fatal	-11.0706
▁farce	-11.071
esque	-11.0711
▁prisoner	-11.0717
set	-11.0721
▁provoking	-11.0721
▁MAN	-11.0722
▁relie	-11.0728
▁Neil	-11.0728
▁Yu	-11.0731
▁accurately	-11.0734
▁Lost	-11.0734
▁Rene	-11.0735
▁honesty	-11.0737
▁hopeless	-11.0753
only	-11.0753
▁Opera	-11.0756
▁south	-11.0758
▁Mac	-11.076
der	-11.0762
▁enthusiastic	-11.0768
▁rolling	-11.0769
▁notably	-11.077
▁BE	-11.0771
▁historically	-11.0785
▁starred	-11.079
▁Mars	-11.0799
▁weapons	-11.0799
▁explained	-11.0802
▁nud	-11.0804
▁naturally	-11.0811
▁heist	-11.0815
▁2,	-11.0818
▁talked	-11.0819
ryl	-11.082
▁Quit	-11.0824
▁explosions	-11.0825
▁bridge	-11.083
shot	-11.0842
▁gut	-11.0843
▁Palm	-11.0852
▁alike	-11.0856
▁ice	-11.086
▁creep	-11.0866
ions	-11.087
let	-11.0873
▁fur	-11.0874
▁hall	-11.0875
yes	-11.0875
▁trademarks	-11.0878
▁Ward	-11.0882
aving	-11.0885
▁listening	-11.0908
▁nose	-11.0917
5	-11.0919
▁west	-11.0936
▁l	-11.0939
▁powers	-11.0959
▁DI	-11.0981
▁sisters	-11.0987
▁conversations	-11.0989
ana	-11.0996
▁Bas	-11.0996
▁fitt	-11.0997
▁Get	-11.0998
▁st	-11.1001
▁possibilit	-11.1021
aged	-11.1024
▁#1	-11.1024
▁biting	-11.1029
▁j	-11.1032
▁orchestra	-11.1034
ill	-11.1041
▁sc	-11.1052
▁encourage	-11.1058
oven	-11.106
▁civil	-11.1061
▁doubts	-11.1062
▁renting	-11.1062
Strangers	-11.1069
▁patriot	-11.1084
▁Tho	-11.1086
▁enhance	-11.1093
▁smoke	-11.1109
▁!!!	-11.1109
▁cats	-11.1121
▁Nicol	-11.1128
▁buying	-11.1136
▁unit	-11.1155
▁offend	-11.1176
tra	-11.1179
▁9.	-11.1184
▁dr	-11.1189
▁calling	-11.1196
mm	-11.1198
▁Boys	-11.1199
▁tunes	-11.1201
os	-11.1203
▁Blues	-11.1203
▁Pal	-11.1204
▁Tan	-11.1212
▁copie	-11.1214
▁states	-11.1216
▁models	-11.1227
▁buildings	-11.1228
ilda	-11.1233
too	-11.1238
▁admir	-11.1239
▁Tomm	-11.1249
▁lu	-11.1254
%	-11.1254
▁awaken	-11.1255
▁cultural	-11.1265
▁Peters	-11.1282
▁desires	-11.1283
board	-11.1315
ama	-11.132
▁vers	-11.1324
la	-11.1333
ship	-11.1334
urs	-11.1335
▁roller	-11.1335
▁criminals	-11.1338
▁WA	-11.134
▁NO	-11.1349
sque	-11.1351
▁Bart	-11.1365
our	-11.1378
izing	-11.1383
▁realise	-11.1393
j	-11.1408
▁map	-11.1412
ending	-11.1416
▁studios	-11.1421
ook	-11.1431
...)	-11.1441
▁Bry	-11.1451
▁Stranger	-11.1465
▁devote	-11.1466
▁establish	-11.1468
use	-11.1472
▁Gen	-11.1474
▁recogniz	-11.1482
▁gr	-11.1484
▁poke	-11.1505
rna	-11.1509
▁symbol	-11.1518
ft	-11.152
▁Angel	-11.1523
▁wrestl	-11.1528
ery	-11.1534
nda	-11.1571
▁spark	-11.1573
▁hearts	-11.1573
girl	-11.1574
▁eccentric	-11.1575
▁facts	-11.1583
itable	-11.1607
Thank	-11.1612
▁walks	-11.1615
Then	-11.1617
ature	-11.1621
▁killers	-11.1625
▁department	-11.1629
▁Muslim	-11.1629
▁portion	-11.163
▁cheat	-11.1632
▁---	-11.1632
▁Sta	-11.1633
▁discussion	-11.1635
▁prostitute	-11.1636
ee	-11.165
▁hippie	-11.1657
▁transition	-11.1657
▁shadow	-11.1661
▁pun	-11.1666
▁balloon	-11.1669
▁storm	-11.167
▁page	-11.167
▁criticism	-11.167
▁chases	-11.1672
▁neighbor	-11.1676
▁shift	-11.168
dy	-11.1681
▁fool	-11.1683
chool	-11.1683
▁prop	-11.1683
▁strike	-11.1685
▁interpretation	-11.1686
▁views	-11.1686
▁parallel	-11.1688
▁zombie	-11.169
▁belief	-11.169
▁term	-11.169
▁Game	-11.1694
▁terrorist	-11.1698
▁!!	-11.1701
▁shine	-11.1707
▁Che	-11.172
▁angle	-11.1726
▁possess	-11.1729
Go	-11.1734
▁seduce	-11.1741
hole	-11.1742
ny	-11.1746
ro	-11.1752
▁hole	-11.1755
ate	-11.1756
▁transfer	-11.1766
▁Classic	-11.1768
ray	-11.1773
▁worrie	-11.1776
look	-11.1778
▁split	-11.1803
▁predict	-11.1805
cast	-11.181
▁pa	-11.1812
min	-11.1824
▁hook	-11.1826
▁Sweet	-11.1827
EN	-11.1827
il	-11.1828
▁sho	-11.1828
▁snap	-11.1833
▁SO	-11.1835
SPOILER	-11.1841
weight	-11.1842
mong	-11.1843
Brazil	-11.1845
OK	-11.1847
Fame	-11.1847
screen	-11.1847
Blue	-11.1848
literally	-11.1848
Hitch	-11.1848
white	-11.1849
normal	-11.1849
Two	-11.1849
Love	-11.1849
perfect	-11.1849
Like	-11.1849
Death	-11.1849
French	-11.1849
▁Cent	-11.185
David	-11.1851
▁goal	-11.1851
▁absorb	-11.1852
▁escapes	-11.1853
hearted	-11.1853
Best	-11.1859
▁Mann	-11.1861
▁strain	-11.1861
itle	-11.1861
▁insult	-11.1863
▁compell	-11.1871
▁instant	-11.1873
▁pleasing	-11.1873
▁definite	-11.1874
▁consum	-11.1875
ez	-11.1876
▁frequent	-11.1876
rated	-11.1876
▁flirt	-11.1879
▁hopeful	-11.1883
▁dose	-11.1883
▁Julia	-11.1883
▁inspire	-11.1884
▁measure	-11.1884
▁sales	-11.1886
▁astonishing	-11.1887
▁resolve	-11.1888
▁filth	-11.1888
▁pretend	-11.189
▁ON	-11.1892
another	-11.1892
▁Trav	-11.1896
▁com	-11.1898
▁Wonder	-11.1899
Let	-11.1899
fortunate	-11.1901
cleane	-11.1902
▁Simp	-11.1903
▁absurd	-11.1903
▁smug	-11.1903
▁August	-11.1904
▁alcohol	-11.1904
▁Count	-11.1904
▁transcend	-11.1905
▁Margar	-11.1905
Replacement	-11.1905
▁Middle	-11.1905
▁Republic	-11.1905
▁Vardon	-11.1905
▁artificial	-11.1905
▁energetic	-11.1905
▁scientific	-11.1905
Bottom	-11.1905
Exorcist	-11.1905
▁Amalia	-11.1905
▁Divine	-11.1905
▁Flamingos	-11.1905
▁IMDB	-11.1905
▁Mascot	-11.1905
▁Massacre	-11.1905
▁Meredith	-11.1905
▁Ramirez	-11.1905
▁Sampredo	-11.1905
▁Selleck	-11.1905
▁Wilkinson	-11.1905
▁accompany	-11.1905
▁behaviour	-11.1905
▁communication	-11.1905
▁disguise	-11.1905
▁elusive	-11.1905
▁guitar	-11.1905
▁mausoleum	-11.1905
▁narrow	-11.1905
▁nervous	-11.1905
▁nostalgia	-11.1905
▁principle	-11.1905
▁tragedies	-11.1905
▁undeniabl	-11.1905
▁vocal	-11.1905
▁vulnerable	-11.1905
▁Irwin	-11.1905
▁Jacque	-11.1905
▁Thief	-11.1905
▁Voyage	-11.1905
▁abroad	-11.1905
▁Berlin	-11.1905
▁sorrow	-11.1905
▁statue	-11.1905
Midnight	-11.1905
▁regime	-11.1905
▁shylock	-11.1905
▁silver	-11.1905
▁zany	-11.1905
▁Scene	-11.1905
▁meticulous	-11.1905
▁Emilio	-11.1905
▁Indeed	-11.1905
▁Yeah	-11.1905
▁Hugh	-11.1905
▁alternative	-11.1905
▁Kettle	-11.1905
▁saga	-11.1905
▁altogether	-11.1905
▁smiling	-11.1905
▁Bunny	-11.1905
▁Hawkins	-11.1905
▁Walken	-11.1905
▁grateful	-11.1905
▁samurai	-11.1905
▁desperation	-11.1905
▁Yuki	-11.1905
▁Gotham	-11.1905
▁sleazy	-11.1905
▁Patricia	-11.1905
▁Robot	-11.1905
▁SEE	-11.1905
▁Lambert	-11.1905
▁Egg	-11.1905
▁captivating	-11.1905
▁population	-11.1905
▁straightforward	-11.1905
▁shallow	-11.1905
▁torment	-11.1905
▁intensity	-11.1905
▁feast	-11.1905
▁Hilton	-11.1905
▁Rush	-11.1905
▁organization	-11.1905
▁1982	-11.1905
▁poetry	-11.1905
▁housekeeper	-11.1905
▁audio	-11.1906
▁complement	-11.1906
▁Music	-11.1906
▁Strong	-11.1906
▁BUT	-11.1906
▁Hindi	-11.1906
▁Raymond	-11.1906
▁Buka	-11.1906
▁Gothic	-11.1906
▁bread	-11.1906
▁Caan	-11.1906
▁assault	-11.1906
▁Portman	-11.1906
▁Weber	-11.1906
▁unconventional	-11.1906
▁ABC	-11.1906
▁inevitable	-11.1906
▁Lindbergh	-11.1906
▁sappy	-11.1906
▁melodramatic	-11.1906
▁Phoebe	-11.1906
▁cemetery	-11.1906
▁ponder	-11.1906
▁Danner	-11.1906
▁transformation	-11.1906
▁Singer	-11.1906
▁keen	-11.1906
▁weekend	-11.1906
▁isolated	-11.1907
▁squad	-11.1907
▁perception	-11.1907
▁kidnapped	-11.1907
▁hype	-11.1907
▁overbearing	-11.1907
▁Leland	-11.1907
▁stopped	-11.1907
▁priceless	-11.1907
AGE	-11.1907
▁disappointment	-11.1908
▁injured	-11.1908
▁hyper	-11.1908
▁deem	-11.1908
▁manipulation	-11.1908
▁Kline	-11.1908
▁Barry	-11.1908
▁Valentine	-11.1908
▁Rickman	-11.1909
▁excited	-11.1909
▁THA	-11.1909
▁1934	-11.1909
▁erotic	-11.1909
▁Conrad	-11.1909
▁Kramer	-11.1909
▁Nevertheless	-11.1909
▁Oliver	-11.1909
▁Pixote	-11.1909
▁unnecessary	-11.1909
▁Suzumiya	-11.1909
▁afternoon	-11.1909
▁Dominoe	-11.1909
▁contrived	-11.1909
▁Hungarian	-11.1909
▁modest	-11.1909
▁Pretty	-11.1909
▁Spade	-11.1909
▁psychopath	-11.1909
▁bumbling	-11.191
▁Channel	-11.191
▁Adventure	-11.191
▁2003	-11.191
▁square	-11.191
▁campus	-11.191
▁FRO	-11.191
▁Clark	-11.191
▁Herbert	-11.191
▁Drive	-11.191
▁thick	-11.191
▁Homer	-11.191
▁Trek	-11.191
▁sentence	-11.191
▁harm	-11.191
▁Goldie	-11.1911
ILL	-11.1911
▁Simple	-11.1911
▁pursuit	-11.1911
▁Hung	-11.1912
▁heaven	-11.1912
▁route	-11.1912
▁brutality	-11.1912
▁gent	-11.1912
▁celebrity	-11.1913
▁Butcher	-11.1913
▁dating	-11.1913
▁fiancée	-11.1913
▁candle	-11.1913
▁Morgana	-11.1914
▁overrated	-11.1914
▁spring	-11.1914
▁Fall	-11.1914
▁wander	-11.1915
▁Fear	-11.1915
▁biography	-11.1915
▁worry	-11.1915
▁clichéd	-11.1916
▁region	-11.1916
▁strict	-11.1917
▁Evil	-11.1917
▁Flynn	-11.1917
▁Letterman	-11.1917
▁Comedy	-11.1917
▁Dawn	-11.1918
▁foul	-11.1918
▁befriend	-11.1918
▁Amir	-11.1918
▁essen	-11.1919
▁Butler	-11.192
▁survivors	-11.1921
▁Holm	-11.1922
▁analysis	-11.1922
mostly	-11.1923
▁assured	-11.1923
▁PG	-11.1924
▁mature	-11.1925
▁overlooked	-11.1925
▁Eva	-11.1927
▁SPOILERS	-11.1927
▁behold	-11.1928
▁cheerful	-11.1929
▁influenced	-11.1931
,000	-11.1931
▁accused	-11.1931
▁noble	-11.1932
▁Julian	-11.1932
▁heartfelt	-11.1932
▁Beyond	-11.1933
▁stairs	-11.1933
▁1/2	-11.1933
▁Bess	-11.1934
▁ok	-11.1934
▁painted	-11.1935
ament	-11.1936
tter	-11.1936
▁Kerr	-11.1937
2)	-11.1937
▁sold	-11.1937
▁Internation	-11.1939
▁Princess	-11.1939
UCH	-11.1939
▁reform	-11.1939
▁arrived	-11.194
▁Ha	-11.194
▁Family	-11.1941
best	-11.1942
▁heartbreaking	-11.1942
▁Heath	-11.1943
▁cheated	-11.1943
▁originality	-11.1943
▁classes	-11.1944
▁observation	-11.1944
▁caper	-11.1947
did	-11.1947
▁insanity	-11.1947
▁mistaken	-11.1949
▁Bridges	-11.195
▁shak	-11.1951
▁Cole	-11.1951
▁phone	-11.1953
▁tiny	-11.1955
▁plausible	-11.1957
▁ignored	-11.1957
▁III	-11.1958
▁ONE	-11.1959
▁tremendously	-11.196
amil	-11.1966
tor	-11.1967
▁sparkl	-11.197
▁hill	-11.1972
▁cake	-11.1973
▁resist	-11.1977
▁according	-11.1978
▁participat	-11.1978
▁buri	-11.1979
▁bombing	-11.198
read	-11.1982
▁Check	-11.1982
▁Hercules	-11.1984
▁Bud	-11.1988
▁driver	-11.2
▁lower	-11.2002
asha	-11.2003
▁clichés	-11.201
▁aim	-11.2019
act	-11.2026
▁fashioned	-11.2027
▁darker	-11.2037
▁Try	-11.2039
▁lips	-11.2043
▁cringe	-11.2047
ither	-11.2053
breaking	-11.2056
▁dust	-11.206
▁Hay	-11.2062
▁shoes	-11.2063
▁Revolution	-11.2065
▁gaps	-11.2069
▁delivering	-11.2081
▁wipe	-11.2081
▁tapes	-11.2087
▁visiting	-11.2092
thing	-11.2098
▁Blyth	-11.2101
▁aging	-11.2104
itz	-11.2105
ries	-11.2116
aking	-11.2116
▁assembl	-11.2119
▁fighter	-11.212
▁pipe	-11.212
▁terrorists	-11.2129
▁beliefs	-11.2129
▁strikes	-11.213
▁interpretations	-11.213
▁zombies	-11.2134
▁Brando	-11.214
▁WW	-11.214
▁dragg	-11.2146
▁semi	-11.2152
▁farm	-11.2156
▁responds	-11.216
▁Main	-11.2161
SE	-11.2162
▁su	-11.2168
▁clues	-11.2192
▁adore	-11.2194
▁Goe	-11.2197
▁novels	-11.2198
▁YOU	-11.2198
▁appearing	-11.2203
▁interact	-11.221
▁Under	-11.2216
▁faults	-11.222
▁motivations	-11.2221
▁Nazis	-11.2225
CK	-11.2226
▁admire	-11.2226
dile	-11.2229
py	-11.2233
▁Unc	-11.2235
lake	-11.2248
▁fingers	-11.2251
▁Jos	-11.2258
▁Woo	-11.2282
▁dancers	-11.2285
ks	-11.229
▁discovering	-11.2291
ACK	-11.2292
was	-11.2297
und	-11.2303
▁deadly	-11.2304
▁optimist	-11.2307
▁compete	-11.2307
lly	-11.2317
▁realm	-11.232
▁le	-11.2324
▁bears	-11.2328
▁ordered	-11.2338
▁ju	-11.2347
▁convention	-11.2352
ew	-11.2363
med	-11.2367
▁standing	-11.2377
▁careers	-11.239
acy	-11.2397
▁attitudes	-11.2405
low	-11.2456
li	-11.2482
▁compos	-11.2486
▁Yi	-11.2491
mid	-11.2495
▁reactions	-11.2499
▁bat	-11.2511
cher	-11.2516
▁Los	-11.2517
▁3-	-11.2519
ix	-11.2526
▁spots	-11.253
▁DO	-11.2542
▁lecture	-11.2546
ened	-11.2553
alph	-11.2554
▁walls	-11.2566
▁Ch	-11.2572
▁Nan	-11.2574
▁scores	-11.2576
▁Chi	-11.2581
raised	-11.2589
▁pleasures	-11.2594
▁severe	-11.2624
▁lands	-11.2633
ford	-11.2644
ification	-11.2656
usie	-11.2657
▁$	-11.2687
▁detectives	-11.2693
ula	-11.2693
▁Battle	-11.2695
▁fr	-11.27
▁retain	-11.2705
▁disc	-11.2713
▁bull	-11.2719
ell	-11.2725
acky	-11.2748
ga	-11.2751
▁trans	-11.2752
▁rightful	-11.2754
▁comics	-11.2759
▁attacks	-11.278
▁Har	-11.279
▁pit	-11.2802
8	-11.2803
▁affairs	-11.2816
▁Barb	-11.2817
ban	-11.283
▁endings	-11.2835
▁Russians	-11.2848
xploitation	-11.2865
▁1945	-11.2878
▁singers	-11.2884
Be	-11.2886
za	-11.2891
▁covers	-11.2901
▁rob	-11.2914
sel	-11.2922
▁9/10	-11.2929
"!	-11.294
ore	-11.2941
▁Alien	-11.2942
▁dominate	-11.2959
looking	-11.2971
▁refer	-11.2974
lways	-11.2976
rk	-11.2976
▁witnesse	-11.2991
plot	-11.3
▁Las	-11.3011
stone	-11.302
very	-11.3032
▁Movies	-11.3036
▁pal	-11.3045
▁flee	-11.3049
▁Close	-11.305
lick	-11.3051
▁nightclub	-11.3058
▁tongue	-11.3063
defined	-11.3078
▁Arm	-11.3078
everal	-11.3084
▁Phillip	-11.3086
▁bullet	-11.3087
▁risk	-11.3091
ONE	-11.3094
▁coast	-11.3096
▁trial	-11.3096
▁Spring	-11.3098
night	-11.3099
▁guest	-11.3099
▁foe	-11.3102
▁grab	-11.3102
▁objective	-11.3103
bsolute	-11.3105
▁talkie	-11.3106
ime	-11.3107
▁highway	-11.3109
▁mountain	-11.3109
▁LA	-11.3109
▁explosion	-11.3115
▁stress	-11.3116
▁auto	-11.3119
▁dollar	-11.3119
▁relation	-11.3121
▁boot	-11.3122
▁costume	-11.3124
ang	-11.3126
▁Bogar	-11.3138
▁mo	-11.3138
▁reel	-11.3146
▁groups	-11.3153
▁Stac	-11.3156
spiring	-11.3157
▁poster	-11.3158
ned	-11.3181
▁Pol	-11.3184
▁shoe	-11.3192
NA	-11.3195
graph	-11.3201
ju	-11.3206
1)	-11.3207
tta	-11.3216
tory	-11.3217
its	-11.3224
▁Bra	-11.3226
sen	-11.3227
▁Di	-11.3237
hood	-11.3251
▁describ	-11.3252
ol	-11.3253
fetched	-11.3259
chor	-11.3262
loved	-11.3264
▁mock	-11.3268
???	-11.327
▁acqui	-11.3272
anger	-11.3273
plausible	-11.3274
Pink	-11.3276
Nothing	-11.3276
Western	-11.3276
Chris	-11.3276
High	-11.3276
Director	-11.3277
Maybe	-11.3277
Most	-11.3277
North	-11.3278
DVD	-11.3278
Jack	-11.3278
▁annoy	-11.3279
Finally	-11.3279
▁pound	-11.328
Following	-11.328
▁Elliot	-11.3282
scene	-11.3282
Take	-11.3285
hase	-11.3286
hard	-11.3287
ES	-11.3287
prints	-11.3291
▁gal	-11.3291
▁defeat	-11.3293
Star	-11.3294
▁relax	-11.3295
▁slack	-11.3295
▁enormous	-11.3297
▁accomplish	-11.3297
▁gift	-11.3301
▁reluctant	-11.3303
Here	-11.3303
here	-11.3304
▁tea	-11.3307
▁16	-11.331
▁spoke	-11.3313
▁engage	-11.3317
▁Due	-11.3317
▁Whe	-11.3321
▁Hunt	-11.3322
▁yard	-11.3322
▁Erik	-11.3327
hand	-11.3328
▁definiti	-11.3329
AME	-11.3329
cha	-11.333
ebra	-11.333
▁electric	-11.3332
▁Egypt	-11.3332
upport	-11.3332
▁confess	-11.3332
▁betray	-11.3333
▁Child	-11.3333
▁Video	-11.3333
Amato	-11.3333
▁Ocean	-11.3333
▁monument	-11.3333
Brien	-11.3333
▁'70	-11.3333
▁Afghanistan	-11.3333
▁Bartleby	-11.3333
▁Bolkan	-11.3333
▁Emperor	-11.3333
▁FFVII	-11.3333
▁Faulkner	-11.3333
▁Firth	-11.3333
▁Gulliver	-11.3333
▁Lansbury	-11.3333
▁Midler	-11.3333
▁Nielsen	-11.3333
▁ODYSSEY	-11.3333
▁Philadelphia	-11.3333
▁Plunkett	-11.3333
▁Potemkin	-11.3333
▁Prokofiev	-11.3333
▁SUNSHINE	-11.3333
▁Scheider	-11.3333
▁Shylock	-11.3333
▁Vatican	-11.3333
▁Vegas	-11.3333
▁Wajda	-11.3333
▁accuracy	-11.3333
▁antonio	-11.3333
▁asylum	-11.3333
▁deceased	-11.3333
▁domestic	-11.3333
▁elaborate	-11.3333
▁embark	-11.3333
▁envelop	-11.3333
▁grotesque	-11.3333
▁invisible	-11.3333
▁kitchen	-11.3333
▁lavish	-11.3333
▁ludicrous	-11.3333
▁perverse	-11.3333
▁strategy	-11.3333
▁subdued	-11.3333
▁COMPLETE	-11.3333
▁Century	-11.3333
▁Jaws	-11.3333
▁arriving	-11.3333
▁morbid	-11.3333
▁neglect	-11.3333
▁orphan	-11.3333
▁prompt	-11.3333
▁thief	-11.3333
▁Darwin	-11.3333
▁Vivien	-11.3333
▁biopic	-11.3333
▁imprison	-11.3333
▁recreate	-11.3333
▁twelve	-11.3333
▁departure	-11.3333
▁frog	-11.3333
▁Houston	-11.3334
▁euthanasia	-11.3334
▁nevertheless	-11.3334
▁prue	-11.3334
▁staging	-11.3334
▁threw	-11.3334
▁Davos	-11.3334
▁duration	-11.3334
▁1939	-11.3334
▁understatement	-11.3334
▁;-)	-11.3334
▁Glob	-11.3334
▁Hannah	-11.3334
▁recurring	-11.3334
▁Dirk	-11.3334
▁Joyce	-11.3334
▁RKO	-11.3334
▁fantasi	-11.3334
▁league	-11.3334
▁preview	-11.3334
▁grandmother	-11.3334
▁Walsh	-11.3334
▁Graves	-11.3334
▁divine	-11.3334
▁Ireland	-11.3334
▁Niven	-11.3334
▁TRA	-11.3334
▁thirty	-11.3334
▁Russo	-11.3334
▁gender	-11.3334
▁WOW	-11.3334
▁pub	-11.3334
▁Swift	-11.3334
RTY	-11.3334
▁candidate	-11.3334
▁1983	-11.3334
▁pathos	-11.3334
▁Jiro	-11.3334
▁stride	-11.3334
▁ignorance	-11.3334
▁seventies	-11.3334
▁Cassie	-11.3334
▁Walker	-11.3334
▁lethal	-11.3334
▁hostile	-11.3334
▁Savage	-11.3334
▁peak	-11.3334
▁underwater	-11.3334
▁Cool	-11.3334
▁occurred	-11.3335
▁practice	-11.3335
▁Dancing	-11.3335
▁Spain	-11.3335
▁Edith	-11.3335
▁Kyon	-11.3335
▁Down	-11.3335
▁unfunny	-11.3335
▁novella	-11.3335
▁oddball	-11.3335
▁rid	-11.3335
▁Right	-11.3335
▁foil	-11.3335
velt	-11.3335
▁lighthearted	-11.3335
▁Gang	-11.3335
▁Buck	-11.3336
▁Fried	-11.3336
▁invasion	-11.3336
▁cities	-11.3336
▁fifth	-11.3336
▁sororit	-11.3336
▁slave	-11.3336
▁surf	-11.3337
▁uncomfortable	-11.3337
▁conviction	-11.3337
▁minus	-11.3337
goldfish	-11.3337
▁hammer	-11.3337
▁phenomenal	-11.3337
▁Lucas	-11.3337
▁vibrant	-11.3337
▁humble	-11.3337
US	-11.3337
▁victory	-11.3337
▁orange	-11.3338
▁redundant	-11.3338
▁misunderstand	-11.3338
▁terrifying	-11.3338
▁Wedding	-11.3338
▁masses	-11.3339
▁35	-11.3339
▁Herzog	-11.3339
▁Manhattan	-11.3339
▁Preminger	-11.3339
▁Remember	-11.3339
▁TCM	-11.3339
▁adequate	-11.3339
▁cigar	-11.3339
▁immortal	-11.3339
▁profile	-11.3339
▁zero	-11.3339
▁Winston	-11.3339
▁method	-11.3339
▁Antonioni	-11.3339
▁crisis	-11.3339
▁gear	-11.3339
▁Britney	-11.3339
▁Ninja	-11.3339
▁Babs	-11.3339
▁Rodney	-11.3339
▁producing	-11.3339
▁Women	-11.3339
▁rose	-11.3339
▁Stalin	-11.3339
▁accessible	-11.3339
▁fortune	-11.3339
▁Foot	-11.3339
▁Coen	-11.3339
▁outcome	-11.3339
▁zone	-11.3339
▁occupation	-11.3339
▁mansion	-11.3339
antom	-11.3339
▁Chop	-11.3339
▁addiction	-11.3339
▁Wilder	-11.3339
▁Miller	-11.3339
▁barber	-11.3339
▁Leonard	-11.334
▁Curtis	-11.334
▁secretary	-11.334
▁function	-11.334
▁photographer	-11.334
▁industrial	-11.334
▁obscur	-11.334
▁stroke	-11.334
▁alternate	-11.334
▁Kingsley	-11.334
▁insightful	-11.334
▁Farley	-11.334
▁March	-11.334
▁nun	-11.334
▁controlled	-11.334
▁Jenny	-11.334
▁edgy	-11.334
▁dear	-11.334
▁authority	-11.3341
▁Abbey	-11.3341
▁dude	-11.3341
▁entirety	-11.3341
▁election	-11.3341
▁Elmer	-11.3341
▁sung	-11.3341
▁weakness	-11.3341
▁2007	-11.3341
▁seamlessly	-11.3341
▁Danish	-11.3342
▁editor	-11.3342
▁Boot	-11.3342
▁nearby	-11.3342
▁CER	-11.3342
▁stranded	-11.3342
▁mass	-11.3342
▁madness	-11.3342
▁cinematographer	-11.3343
▁seeming	-11.3344
▁Bright	-11.3344
▁curse	-11.3345
▁>	-11.3345
▁Edge	-11.3345
▁Dent	-11.3345
▁Chain	-11.3346
▁simultaneously	-11.3346
▁admirably	-11.3347
▁devastating	-11.3347
▁bounc	-11.3347
▁Silence	-11.3348
▁Sydney	-11.3348
▁psychic	-11.3348
▁bonus	-11.3348
▁Surface	-11.3348
▁Modern	-11.3348
▁Gregory	-11.3348
▁dubbing	-11.3348
▁Carné	-11.3348
▁Snake	-11.3348
▁valuable	-11.3348
▁spiral	-11.3348
▁uneven	-11.3348
▁Open	-11.3348
▁trivial	-11.3348
▁Beach	-11.3348
▁Phil	-11.3348
▁wow	-11.3349
▁located	-11.3349
▁nonsense	-11.3349
▁anticipated	-11.3349
▁21	-11.3349
▁Mama	-11.335
▁difficulties	-11.335
▁Kung	-11.335
▁antics	-11.335
▁funds	-11.3351
▁crushed	-11.3351
▁increasingly	-11.3351
▁stalk	-11.3351
-90	-11.3352
▁uplifting	-11.3352
▁restraint	-11.3352
▁forgot	-11.3353
▁arrival	-11.3353
▁ensues	-11.3355
▁enchanting	-11.3356
▁frightening	-11.3356
▁Sweeney	-11.3357
▁Nightbreed	-11.3357
▁Jamie	-11.3357
▁destruction	-11.3357
▁logical	-11.3358
▁Chuck	-11.3358
▁seedy	-11.3359
▁Throughout	-11.3359
▁Kurt	-11.3359
▁biased	-11.336
▁Saw	-11.336
cer	-11.3361
ud	-11.3362
OSE	-11.3362
▁Tap	-11.3365
▁growth	-11.3366
▁Dance	-11.3366
▁Throw	-11.3366
▁agreement	-11.3366
▁enjoyment	-11.3367
▁rejected	-11.337
▁choreographed	-11.3371
▁mail	-11.3372
▁floating	-11.3373
▁investigate	-11.3374
▁eXistenZ	-11.3375
▁Releas	-11.3375
▁Pierre	-11.3377
▁Amy	-11.338
▁True	-11.3381
▁=	-11.3385
▁challenged	-11.3385
▁Jackal	-11.3385
▁Hard	-11.3386
▁clouds	-11.3386
▁residents	-11.3386
▁Really	-11.3387
▁belly	-11.3388
▁wi	-11.3389
▁possessed	-11.3389
▁raped	-11.3394
▁Sadly	-11.3394
▁IQ	-11.3394
▁Ramon	-11.3398
▁Pink	-11.34
▁reunite	-11.3401
▁Brazil	-11.3403
▁castle	-11.3408
▁explored	-11.3409
ves	-11.3411
▁Paget	-11.3415
▁spine	-11.3418
CH	-11.3419
▁Connors	-11.342
▁Studios	-11.3421
▁subplots	-11.3421
▁clan	-11.3422
brain	-11.3424
▁/>10	-11.3425
▁LE	-11.3427
▁fired	-11.3428
▁AT	-11.3428
▁Reed	-11.343
hi	-11.343
▁Northfork	-11.3431
▁stated	-11.3434
▁forth	-11.3436
▁truthful	-11.3441
▁makeup	-11.3442
▁battles	-11.3442
quality	-11.3445
▁earn	-11.3453
▁colleagues	-11.3455
▁remarkabl	-11.3456
▁Judi	-11.3459
any	-11.3459
unseen	-11.3463
▁mysteriously	-11.3464
oh	-11.3465
ging	-11.3471
▁complaining	-11.3471
▁appreciati	-11.3472
▁shoulders	-11.3476
▁Pan	-11.348
▁admission	-11.3483
▁oil	-11.3485
▁Eve	-11.3486
▁Kers	-11.349
▁Queens	-11.349
▁warriors	-11.349
▁reminder	-11.3504
▁198	-11.3506
▁afterwards	-11.3509
▁secretly	-11.3509
llowing	-11.3509
aud	-11.3515
▁har	-11.3519
Toole	-11.3526
▁screams	-11.3526
▁Jews	-11.353
▁passengers	-11.353
school	-11.3534
working	-11.356
radin	-11.356
▁convincingly	-11.3563
▁spiritual	-11.3566
▁developing	-11.357
▁spur	-11.3571
▁Bat	-11.3573
▁inform	-11.3575
▁Pearl	-11.3579
▁Ida	-11.359
▁caricature	-11.3591
▁reject	-11.3593
▁angles	-11.3595
▁trained	-11.3601
des	-11.3603
▁examine	-11.3606
▁Hicks	-11.3614
series	-11.3614
▁stepp	-11.3618
▁Bro	-11.3623
▁id	-11.3624
ants	-11.3624
▁Pop	-11.3625
▁waited	-11.3625
▁Sisters	-11.3631
▁incidents	-11.3631
▁movements	-11.3632
▁closed	-11.3639
▁Tor	-11.3648
▁sh	-11.3651
bility	-11.3664
▁Mal	-11.3666
▁owe	-11.3674
▁Woods	-11.3675
▁avenge	-11.3683
▁celebrate	-11.3689
▁Ark	-11.3694
▁global	-11.3696
ger	-11.3705
▁mute	-11.3711
▁conservative	-11.3714
▁loo	-11.3721
▁TH	-11.3722
eh	-11.3723
▁preferr	-11.3724
ure	-11.3738
▁Lam	-11.3745
▁Ph	-11.3749
▁warn	-11.3752
▁crimes	-11.3755
▁9/10.	-11.3755
light	-11.3764
▁surroundings	-11.3774
▁landscapes	-11.3779
▁retire	-11.3782
oster	-11.3789
▁hum	-11.3791
▁formed	-11.3796
▁winds	-11.3806
▁interactions	-11.381
ault	-11.381
ain	-11.3811
▁sca	-11.3812
far	-11.3813
▁ro	-11.3816
▁Dy	-11.3818
▁ties	-11.3826
ver	-11.3831
Viviane	-11.3835
▁spi	-11.3842
.............	-11.3849
▁Bri	-11.3857
val	-11.3872
nch	-11.3875
▁millions	-11.3882
▁Walters	-11.3883
IL	-11.3889
▁hilariously	-11.3907
▁Sheen	-11.3919
▁Films	-11.3929
▁2.	-11.3934
lucky	-11.3939
arate	-11.3941
▁burst	-11.3946
▁des	-11.3954
▁Cor	-11.3954
▁Nicole	-11.3955
▁goat	-11.3957
rity	-11.3971
▁Sel	-11.3979
mple	-11.3981
▁hates	-11.3994
▁displays	-11.3994
▁Juliet	-11.4012
▁hey	-11.4012
▁Math	-11.4025
ack	-11.4026
1	-11.4031
▁Doo	-11.4035
ior	-11.4037
▁ti	-11.4047
▁awe	-11.4047
ick	-11.4055
▁asking	-11.4063
▁decisions	-11.4066
such	-11.4074
▁Ba	-11.4094
▁Samm	-11.4099
▁translate	-11.4103
blowing	-11.411
lia	-11.4115
▁arise	-11.4121
▁replac	-11.4132
▁counts	-11.4144
▁Anti	-11.4145
ai	-11.4155
tenant	-11.4168
▁marks	-11.4171
▁Wit	-11.4175
▁angel	-11.4181
▁argu	-11.4182
▁Taka	-11.4182
▁rain	-11.4188
watch	-11.4191
stable	-11.4195
Files	-11.4196
▁judg	-11.4198
▁mold	-11.4202
▁comparisons	-11.4214
▁observ	-11.4224
▁owners	-11.423
rench	-11.4238
▁differences	-11.4252
ied	-11.4263
▁Pet	-11.4264
hill	-11.4269
▁writes	-11.4291
▁Blu	-11.4294
rie	-11.43
▁inch	-11.4301
▁comp	-11.4302
▁prov	-11.4316
ster	-11.4322
▁Ak	-11.4341
cular	-11.4349
ria	-11.4354
croco	-11.4361
▁mar	-11.4361
▁wh	-11.4363
ight	-11.4364
▁adaptations	-11.4365
eb	-11.4375
▁Fa	-11.4382
nna	-11.4383
vor	-11.4396
tro	-11.4421
▁Hope	-11.4435
▁Friends	-11.4436
onald	-11.4443
either	-11.4452
ér	-11.4453
ual	-11.4459
▁Mon	-11.4465
▁dro	-11.447
ck	-11.4472
rry	-11.4475
▁survives	-11.4483
▁retir	-11.4495
▁regards	-11.4502
▁ratings	-11.4518
▁records	-11.4524
urthermore	-11.4545
▁musicians	-11.4545
ex	-11.4548
▁2006	-11.4573
▁bi	-11.4581
olic	-11.4589
long	-11.4595
owned	-11.4597
▁oppose	-11.4599
▁Hey	-11.4615
▁idiot	-11.464
trip	-11.4654
▁bite	-11.4665
▁lea	-11.4667
Anyway	-11.4669
▁odds	-11.4673
spel	-11.4674
ets	-11.4675
owl	-11.4677
▁190	-11.4678
dog	-11.4681
▁Add	-11.4684
▁tee	-11.4688
▁damage	-11.4704
▁Cap	-11.4706
▁Fi	-11.4718
▁fade	-11.472
▁scream	-11.4721
▁rhythm	-11.4726
▁Dream	-11.4726
▁orders	-11.4726
blown	-11.4731
ffee	-11.4733
▁bands	-11.4734
▁possession	-11.4734
▁belt	-11.4738
▁mask	-11.4754
▁gangster	-11.4755
▁pie	-11.4757
▁masters	-11.4761
▁recruit	-11.4763
▁Nichol	-11.4764
▁riot	-11.4765
▁nomination	-11.4765
▁gig	-11.4767
▁achievement	-11.4768
▁variation	-11.4768
▁suspicion	-11.4771
▁intention	-11.4771
▁client	-11.4772
▁treats	-11.4773
▁gripe	-11.4774
▁beer	-11.4775
▁comedian	-11.4776
▁politician	-11.4776
▁passenger	-11.4778
▁weapon	-11.4782
▁stunt	-11.4784
▁lyric	-11.4787
▁gap	-11.4791
▁sale	-11.4793
col	-11.4795
▁Jew	-11.4795
▁argument	-11.4796
▁Capt	-11.4799
AN	-11.48
▁Brother	-11.4806
elli	-11.481
tiny	-11.481
▁user	-11.4811
handed	-11.4815
▁MO	-11.4826
~	-11.4826
▁stir	-11.4827
▁string	-11.4828
ney	-11.484
Le	-11.484
▁Regina	-11.4845
▁doc	-11.4847
▁Ad	-11.486
▁explor	-11.4861
love	-11.4865
ised	-11.4865
ut	-11.4866
▁Steven	-11.4867
▁inhuman	-11.4884
acted	-11.4885
unk	-11.4886
Second	-11.4887
MAN	-11.489
serving	-11.4894
▁threaten	-11.4906
release	-11.4907
▁Hand	-11.492
cover	-11.4922
▁slip	-11.493
beard	-11.493
▁flop	-11.4931
action	-11.4931
▁Euro	-11.4933
▁distract	-11.4937
wrenching	-11.4939
=	-11.494
phone	-11.4941
Besides	-11.4942
thirst	-11.4942
constructed	-11.4942
Barbara	-11.4942
Every	-11.4943
▁investigat	-11.4943
produced	-11.4944
Ryan	-11.4944
held	-11.4944
child	-11.4944
piece	-11.4944
Long	-11.4944
true	-11.4944
people	-11.4944
workers	-11.4945
▁satisfy	-11.4946
gang	-11.4946
Anne	-11.4947
town	-11.4948
▁dash	-11.4949
classic	-11.495
fashioned	-11.4951
Oh	-11.4952
▁adapt	-11.4953
▁excel	-11.4955
Young	-11.4955
Too	-11.4956
▁Gold	-11.4957
Heart	-11.4958
burn	-11.4958
along	-11.4958
▁arrest	-11.4961
rom	-11.4965
▁select	-11.4966
▁intend	-11.4966
▁immense	-11.4968
▁immediate	-11.4969
Dan	-11.497
Dr	-11.4971
▁undergo	-11.4975
Tin	-11.4977
........	-11.4978
▁rang	-11.4978
▁instinct	-11.4979
field	-11.4979
!!!!!	-11.4982
covered	-11.4983
▁lust	-11.4984
your	-11.4985
▁amuse	-11.4985
▁bore	-11.4986
▁reader	-11.4986
▁bill	-11.4987
▁soci	-11.4989
▁Gipp	-11.4989
are	-11.499
nspector	-11.499
▁engine	-11.4991
▁improve	-11.4992
▁Ever	-11.4993
▁Southern	-11.4998
▁poet	-11.4999
ublic	-11.4999
▁sensual	-11.4999
▁employ	-11.4999
▁marvel	-11.4999
▁Lindberg	-11.4999
▁inevitab	-11.4999
▁stead	-11.4999
▁contest	-11.5
^	-11.5
----------------	-11.5
▁swim	-11.5
▁explod	-11.5
ynopsis	-11.5
▁Ackroyd	-11.5
▁Aquarius	-11.5
▁Atkinson	-11.5
▁Atlanta	-11.5
▁Blockbuster	-11.5
▁Colonel	-11.5
▁Daphne	-11.5
▁Dennehy	-11.5
▁Duvall	-11.5
▁Ecclest	-11.5
▁Estevez	-11.5
▁Genius	-11.5
▁Giallo	-11.5
▁Griffith	-11.5
▁Iraq	-11.5
▁Knute	-11.5
▁Lederer	-11.5
▁Midian	-11.5
▁Orleans	-11.5
▁Paxton	-11.5
▁Peralta	-11.5
▁Poirot	-11.5
▁Rocque	-11.5
▁Rugrats	-11.5
▁Schroeder	-11.5
▁Tenkai	-11.5
▁Truffaut	-11.5
▁Wahlberg	-11.5
▁ambiguous	-11.5
▁brisk	-11.5
▁buddies	-11.5
▁caution	-11.5
▁claustrophobi	-11.5
▁collaborators	-11.5
▁disease	-11.5
▁engrossing	-11.5
▁espionage	-11.5
▁expense	-11.5
▁explosive	-11.5
▁extraordinari	-11.5
▁flamboyan	-11.5
▁inclusion	-11.5
▁influential	-11.5
▁irrelevant	-11.5
▁manipulate	-11.5
▁maturity	-11.5
▁miraculous	-11.5
▁mutual	-11.5
▁nightmarish	-11.5
▁obnoxious	-11.5
▁obsessive	-11.5
▁perceive	-11.5
▁radar	-11.5
▁riveted	-11.5
▁sidekick	-11.5
▁solution	-11.5
▁splatter	-11.5
▁spontaneous	-11.5
▁stubborn	-11.5
▁suicidal	-11.5
▁superficial	-11.5
▁surviving	-11.5
▁traffic	-11.5
▁turbulen	-11.5
▁unpleasant	-11.5
▁yourselves	-11.5
▁Actress	-11.5
▁Bergen	-11.5
▁Decker	-11.5
▁Horrigan	-11.5
▁ROUGE	-11.5
▁Robards	-11.5
▁Surov	-11.5
▁frozen	-11.5
▁ingenious	-11.5
▁liberal	-11.5
▁patience	-11.5
▁simplistic	-11.5
▁wheelchair	-11.5
▁Bunuel	-11.5
▁Tiffani	-11.5
▁desolate	-11.5
▁pioneer	-11.5
▁rendition	-11.5
▁stereotypical	-11.5
▁wisdom	-11.5
▁Camden	-11.5
▁cheese	-11.5
▁Fiction	-11.5
▁Gosling	-11.5
▁exposure	-11.5
▁swamp	-11.5
▁Lambs	-11.5
▁Lazar	-11.5
▁mysteries	-11.5
▁vacation	-11.5
▁Seymour	-11.5
▁bounty	-11.5
▁Dressler	-11.5
▁dwarf	-11.5
▁schlock	-11.5
▁Everett	-11.5
▁literature	-11.5
▁1993	-11.5
▁Streep	-11.5
▁USSR	-11.5
▁Wall	-11.5
▁counterculture	-11.5
▁menacing	-11.5
▁lipstick	-11.5
▁Hearn	-11.5
▁hollow	-11.5
▁rarity	-11.5
▁excellence	-11.5
▁Godzilla	-11.5
▁harrowing	-11.5
▁ticket	-11.5
▁Garfield	-11.5
▁exercise	-11.5
▁persuade	-11.5
▁Larter	-11.5
▁destination	-11.5
▁wreck	-11.5
▁Theatre	-11.5
▁neighborhood	-11.5
▁1999	-11.5
▁Yardley	-11.5
▁employee	-11.5
▁fluid	-11.5
▁Tennant	-11.5
▁Diaz	-11.5
▁Direction	-11.5
▁FBI	-11.5
▁Patient	-11.5
▁sustain	-11.5
▁Granger	-11.5
▁Kumar	-11.5
▁Lanka	-11.5
▁Baker	-11.5
▁Ryback	-11.5
▁pause	-11.5
▁Congo	-11.5
▁suburban	-11.5
▁dictator	-11.5
▁shelter	-11.5
▁Holden	-11.5
▁glance	-11.5
IKE	-11.5
▁jacket	-11.5
▁HELL	-11.5001
▁vicious	-11.5001
▁Castle	-11.5001
ors	-11.5001
TAIN	-11.5001
▁ease	-11.5001
▁obtain	-11.5001
▁tattoo	-11.5001
shima	-11.5001
▁hokey	-11.5001
▁earlie	-11.5001
▁ambition	-11.5001
▁WITH	-11.5001
▁translator	-11.5001
▁flair	-11.5001
▁minister	-11.5001
▁Haines	-11.5001
▁compliment	-11.5001
▁Jungle	-11.5001
▁surgery	-11.5001
▁2004	-11.5001
▁Winter	-11.5001
▁graduation	-11.5001
▁Hartley	-11.5001
▁egg	-11.5001
▁symbolism	-11.5001
▁Native	-11.5001
▁Emmy	-11.5001
▁Series	-11.5001
▁Beau	-11.5001
▁lieu	-11.5001
▁Holland	-11.5001
▁maid	-11.5001
▁birthday	-11.5001
▁crook	-11.5001
manda	-11.5001
▁Fair	-11.5001
▁drill	-11.5001
▁Waterston	-11.5001
▁terminal	-11.5001
▁unbearable	-11.5002
▁Dieter	-11.5002
▁roam	-11.5002
▁Foster	-11.5002
▁steel	-11.5002
▁Ruben	-11.5002
▁invention	-11.5002
▁peaceful	-11.5002
▁Willard	-11.5002
▁Liar	-11.5002
▁chuckle	-11.5002
▁corny	-11.5002
▁plight	-11.5002
▁obscurity	-11.5002
▁ballet	-11.5002
▁doom	-11.5002
▁earnest	-11.5002
OOD	-11.5002
▁leap	-11.5002
▁Barbie	-11.5002
▁dread	-11.5002
▁failure	-11.5002
▁reprise	-11.5003
▁robbery	-11.5003
▁rubber	-11.5003
▁bliss	-11.5003
▁proof	-11.5003
▁acceptance	-11.5003
▁Flow	-11.5003
▁Grin	-11.5003
Set	-11.5003
▁assassination	-11.5003
▁yearning	-11.5003
▁teaser	-11.5004
▁Usually	-11.5004
▁basement	-11.5004
▁Bow	-11.5004
▁debate	-11.5004
▁Claire	-11.5004
▁spaceship	-11.5004
▁racism	-11.5004
▁Sky	-11.5005
▁wake	-11.5005
▁rocket	-11.5005
▁Somehow	-11.5005
▁Mason	-11.5005
▁president	-11.5005
▁unwilling	-11.5006
▁brooding	-11.5006
▁grabbing	-11.5006
▁disk	-11.5006
▁Consider	-11.5006
▁Episode	-11.5006
▁Fortunately	-11.5006
▁Lloyd	-11.5006
▁Benedict	-11.5006
▁Katherine	-11.5006
▁Randolph	-11.5006
▁Ventura	-11.5006
▁Yusuf	-11.5006
▁river	-11.5006
▁Short	-11.5006
▁bottle	-11.5006
▁Keith	-11.5006
▁Matrix	-11.5006
▁amiable	-11.5006
▁Harvey	-11.5006
▁Luckily	-11.5006
▁Spaz	-11.5006
▁drunk	-11.5006
▁IMO	-11.5006
▁Sita	-11.5006
▁Navy	-11.5007
nuclear	-11.5007
▁Mohr	-11.5007
▁smash	-11.5007
▁Funny	-11.5007
▁stiff	-11.5007
▁psychotic	-11.5007
▁Barrymore	-11.5007
▁Science	-11.5007
▁jar	-11.5007
▁naked	-11.5007
▁sickening	-11.5007
▁shut	-11.5007
▁Power	-11.5007
▁eternal	-11.5007
▁fraternity	-11.5008
▁clumsy	-11.5008
ridden	-11.5008
▁Eleven	-11.5008
▁Randy	-11.5008
▁Christina	-11.5008
▁Ruth	-11.5008
▁file	-11.5008
▁Frog	-11.5009
▁ashamed	-11.5009
▁1,	-11.5009
▁construction	-11.5009
▁Marie	-11.5009
▁endanger	-11.501
▁tv	-11.501
▁meaningless	-11.501
▁Molly	-11.501
▁beaten	-11.5011
▁UP	-11.5011
▁Snow	-11.5011
▁conduct	-11.5011
▁lumin	-11.5011
▁Roll	-11.5011
▁trio	-11.5011
▁Clay	-11.5011
▁blahblah	-11.5012
▁Apart	-11.5012
▁inherited	-11.5012
▁vary	-11.5012
▁overused	-11.5012
▁popularity	-11.5012
Toy	-11.5012
▁Off	-11.5012
▁Bear	-11.5013
▁crazed	-11.5013
▁cup	-11.5013
▁useful	-11.5013
▁meantime	-11.5013
▁Kane	-11.5013
▁injustice	-11.5013
▁End	-11.5014
▁Josh	-11.5014
▁;)	-11.5014
▁recipe	-11.5014
▁Casey	-11.5014
▁Cure	-11.5014
▁updated	-11.5014
▁announced	-11.5014
▁Grey	-11.5015
▁butcher	-11.5015
▁Score	-11.5015
▁Bernie	-11.5015
▁dedicated	-11.5016
▁effortlessly	-11.5016
▁Crisp	-11.5016
Hey	-11.5016
▁Mills	-11.5016
▁Kiss	-11.5016
▁Sad	-11.5016
▁DW	-11.5017
oir	-11.5017
▁24	-11.5017
▁stream	-11.5017
▁Abbott	-11.5017
▁fodder	-11.5017
▁Eventually	-11.5017
▁Secret	-11.5017
▁pronounce	-11.5017
▁Tyler	-11.5017
▁giallo	-11.5017
▁exceeded	-11.5018
▁block	-11.5018
▁rewarded	-11.5018
▁Otherwise	-11.5018
▁charismatic	-11.5018
▁similarity	-11.5019
▁advanced	-11.5019
▁Pete	-11.502
▁murderous	-11.502
▁airport	-11.5022
▁Newman	-11.5023
▁creators	-11.5023
▁Gate	-11.5023
▁seducti	-11.5024
▁Kid	-11.5024
▁code	-11.5025
▁planned	-11.5025
▁cutting	-11.5025
▁Frenchman	-11.5025
aramount	-11.5026
▁exposed	-11.5026
▁banal	-11.5026
▁Bam	-11.5027
EVER	-11.5027
▁tolerance	-11.5028
▁Motorama	-11.5028
▁Obviously	-11.5028
▁Godfather	-11.5029
▁Dario	-11.5029
▁WAY	-11.5029
▁assort	-11.503
noir	-11.503
▁restored	-11.503
▁fl	-11.5031
▁Cage	-11.5031
▁fad	-11.5031
▁disgusted	-11.5032
▁genres	-11.5033
▁cue	-11.5034
▁Anna	-11.5034
ties	-11.5037
▁rendering	-11.5037
▁unsettling	-11.5037
▁clothing	-11.5037
▁invented	-11.5038
▁scope	-11.5039
▁resolved	-11.5039
▁deft	-11.504
▁drab	-11.5042
▁highest	-11.5043
▁McGa	-11.5044
itude	-11.5044
▁ARM	-11.5044
▁gifted	-11.5045
▁excell	-11.5045
▁surpassed	-11.5046
high	-11.5048
mobile	-11.5048
Ing	-11.5049
yze	-11.505
▁intrigued	-11.5052
Naruto	-11.5054
▁demonstrate	-11.5055
▁lion	-11.5056
same	-11.5058
▁Cuba	-11.5058
uthern	-11.5058
ONG	-11.5059
▁EVER	-11.506
▁Hart	-11.5061
▁wire	-11.5062
ti	-11.5062
▁chips	-11.5063
▁attributes	-11.5063
▁Soldiers	-11.5063
▁mutants	-11.5063
▁baddies	-11.5063
▁union	-11.5065
▁graceful	-11.5066
▁Cop	-11.5066
▁Miles	-11.5066
Ollie	-11.5067
▁wrenching	-11.5067
▁Rent	-11.5069
▁charged	-11.5069
▁fest	-11.5069
door	-11.5071
▁smoking	-11.5071
▁losers	-11.5071
▁sel	-11.5072
really	-11.5074
▁burned	-11.5074
▁reported	-11.5075
▁profoundly	-11.5077
▁endless	-11.5077
▁KING	-11.5079
▁males	-11.5079
▁pretending	-11.5079
▁absorbing	-11.5079
▁SPOILER	-11.5081
▁Lion	-11.5084
ollege	-11.5087
TH	-11.5088
▁woods	-11.5089
illa	-11.509
▁Easter	-11.509
▁commanding	-11.509
▁lying	-11.5098
▁chopp	-11.51
▁tempt	-11.5101
▁joined	-11.5101
▁repeatedly	-11.5101
▁Gard	-11.5102
HAD	-11.5102
▁reck	-11.5103
▁Souls	-11.5104
▁counterparts	-11.5104
▁occasions	-11.5104
▁Serge	-11.5105
▁Hours	-11.5106
▁Rud	-11.5106
▁Baron	-11.5107
▁marvelously	-11.5107
▁succeeded	-11.511
▁heat	-11.5115
▁ritual	-11.5118
laine	-11.512
▁fairy	-11.5122
ively	-11.5122
▁cater	-11.5129
▁pale	-11.5133
▁breathing	-11.5134
▁beg	-11.5135
▁Band	-11.5137
▁Swed	-11.5137
▁Rain	-11.5138
▁nuts	-11.5139
▁paint	-11.5141
▁striv	-11.5142
---	-11.5143
▁peers	-11.5143
▁brush	-11.5143
oul	-11.5145
▁ingredients	-11.5146
▁youngsters	-11.5146
▁Living	-11.5162
affre	-11.5164
▁Bur	-11.5164
▁sincere	-11.5165
▁confronting	-11.5166
cla	-11.5171
ould	-11.5176
▁10/10.	-11.5178
▁silli	-11.5178
▁rant	-11.5182
▁Had	-11.5186
▁photographs	-11.5186
▁workers	-11.5188
▁chills	-11.5188
▁Vincen	-11.5191
lover	-11.5192
▁wo	-11.5192
▁transferr	-11.5193
▁needless	-11.5198
undance	-11.5198
▁ITV	-11.5199
▁Sand	-11.5201
▁liners	-11.521
▁matched	-11.5211
▁rocker	-11.5212
▁elect	-11.5214
▁ambi	-11.5219
ffed	-11.522
▁answered	-11.5221
King	-11.5223
▁integra	-11.5226
▁tonight	-11.5229
▁Stevens	-11.523
▁comedians	-11.523
▁politicians	-11.523
rrol	-11.5232
▁idiots	-11.5233
berg	-11.5235
▁wars	-11.5235
▁pill	-11.5236
▁angels	-11.5239
▁item	-11.5244
bert	-11.5245
op	-11.5249
▁stone	-11.5252
▁Maria	-11.5256
uring	-11.5257
▁readers	-11.5257
lbert	-11.5263
▁ch	-11.5265
▁reduce	-11.5267
▁smuggl	-11.5271
▁mountains	-11.5272
▁boots	-11.5272
▁risks	-11.5273
▁relations	-11.5278
▁Mar	-11.528
sis	-11.5282
▁Bass	-11.5292
▁kicking	-11.5295
other	-11.53
coaster	-11.5301
run	-11.5302
▁Going	-11.5307
▁snapp	-11.5307
▁goals	-11.5315
Red	-11.532
▁props	-11.532
▁shadows	-11.5322
▁Block	-11.5324
ER	-11.5331
▁ab	-11.5332
nky	-11.5333
dore	-11.534
▁purchas	-11.5346
riche	-11.535
▁influences	-11.5358
▁Clo	-11.536
aki	-11.5371
▁legs	-11.5373
▁warming	-11.5389
▁grind	-11.5398
▁quotes	-11.5399
▁filmmaking	-11.5409
▁mi	-11.5411
▁conspira	-11.5414
▁lacked	-11.5416
ker	-11.5419
▁Ci	-11.5423
ggy	-11.5426
kins	-11.5428
▁cow	-11.5435
▁boxing	-11.5436
▁installments	-11.5443
▁letters	-11.5448
▁strangers	-11.5455
▁ears	-11.546
▁allies	-11.5467
500	-11.5469
▁notion	-11.5472
▁Ned	-11.5482
ena	-11.5485
▁winners	-11.5486
▁overt	-11.5489
▁flows	-11.5489
▁Du	-11.5501
▁dolls	-11.5511
▁musician	-11.5517
▁Haw	-11.552
▁dresse	-11.552
▁hoped	-11.5523
▁mentioning	-11.5525
▁Carpenters	-11.5529
.......	-11.5532
nn	-11.5534
ham	-11.5538
▁cards	-11.5539
▁trop	-11.5545
ba	-11.5558
?!	-11.556
▁Duck	-11.5565
▁ideals	-11.5565
▁mighty	-11.5571
▁Bern	-11.558
▁propose	-11.5584
▁opt	-11.559
▁Ot	-11.5597
▁Shi	-11.5608
▁eats	-11.5616
▁pursue	-11.5627
ig	-11.5634
urse	-11.5636
actually	-11.5649
atory	-11.5656
▁collapse	-11.5661
2.	-11.5663
▁Darr	-11.5663
Shop	-11.5666
▁dam	-11.5668
▁Asia	-11.568
▁headed	-11.568
▁40'	-11.5689
▁7.	-11.569
ante	-11.569
▁Until	-11.5693
que	-11.5698
▁pos	-11.5699
▁Vinc	-11.5703
▁commercials	-11.5705
▁purposes	-11.5705
▁plat	-11.5712
acco	-11.5717
shop	-11.5726
▁croc	-11.5736
▁seni	-11.574
▁Sp	-11.5744
▁unsu	-11.5752
▁conflicts	-11.5753
▁precede	-11.5768
▁Mor	-11.5778
ability	-11.5786
▁laws	-11.5792
▁Hu	-11.5793
▁wing	-11.581
nes	-11.5828
▁defin	-11.5831
▁lively	-11.5833
William	-11.5835
ogue	-11.5844
ole	-11.5847
▁officers	-11.5847
▁Ga	-11.5853
▁Jon	-11.5855
▁warp	-11.5872
rade	-11.588
▁encounters	-11.589
▁wishing	-11.589
▁wealth	-11.5893
▁endure	-11.5895
ky	-11.5896
lastic	-11.5898
▁wheel	-11.5903
▁leaders	-11.5913
▁Kop	-11.5916
▁ensure	-11.5927
▁teachers	-11.5934
tha	-11.5935
▁sto	-11.5951
▁Mos	-11.5957
bel	-11.5961
▁scripted	-11.5965
▁plains	-11.5971
agon	-11.5981
▁elevate	-11.5987
▁oppressi	-11.5992
ak	-11.5998
▁op	-11.6002
▁spa	-11.6005
Out	-11.6006
fire	-11.6016
▁mixe	-11.6017
▁victims	-11.6018
▁manners	-11.6019
ular	-11.602
▁exceptions	-11.602
del	-11.6026
▁cliche	-11.6036
▁prank	-11.6044
ored	-11.6057
leading	-11.6076
goers	-11.6085
sky	-11.6085
▁premier	-11.6086
lid	-11.6089
▁manag	-11.6093
▁wonders	-11.6093
▁Ala	-11.6097
ments	-11.6104
▁compose	-11.6121
TER	-11.6126
▁Ole	-11.6132
wood	-11.6148
▁shar	-11.6151
▁aliens	-11.616
▁subjects	-11.6165
▁tastes	-11.6168
omething	-11.617
▁Pla	-11.6171
▁interpla	-11.6174
▁uncertain	-11.6182
▁text	-11.6183
oney	-11.6196
▁smiles	-11.6201
BE	-11.6207
▁morals	-11.6209
▁Ve	-11.6226
▁Sh	-11.623
▁pursu	-11.6241
▁collaps	-11.6249
▁litera	-11.6256
ons	-11.6268
▁/>*	-11.6281
▁nod	-11.6282
▁beats	-11.6296
acka	-11.6297
▁Fo	-11.6299
▁Awesome	-11.6321
▁differently	-11.6334
ating	-11.6334
▁frames	-11.6339
▁screens	-11.6353
home	-11.6379
ren	-11.6381
▁equ	-11.6386
▁Je	-11.6395
ssed	-11.6399
ians	-11.6412
▁outing	-11.6425
IE	-11.6435
▁sk	-11.6441
ev	-11.6444
▁ships	-11.6444
tained	-11.6448
antic	-11.6449
▁Sun	-11.6451
▁ni	-11.6461
▁titles	-11.647
nal	-11.6473
ATER	-11.6473
▁Masters	-11.6476
▁Ten	-11.6477
▁pi	-11.6483
▁1959	-11.6489
0	-11.649
▁celebrat	-11.6506
▁Dar	-11.6507
▁meta	-11.6508
▁SPA	-11.6517
▁fo	-11.6525
mar	-11.6531
cap	-11.6534
iff	-11.6541
▁scripts	-11.6556
▁prima	-11.6559
vey	-11.6561
▁Low	-11.657
▁Mom	-11.6572
▁concepts	-11.658
▁AL	-11.658
▁econom	-11.6582
▁8.	-11.6594
elson	-11.661
▁Miche	-11.6611
▁Trap	-11.6613
▁Ki	-11.6614
▁Sid	-11.6623
staged	-11.6633
▁draft	-11.664
ue	-11.6652
ANT	-11.6657
production	-11.6671
Up	-11.6672
comic	-11.6684
ld	-11.6688
▁switch	-11.6688
▁Hawk	-11.6691
while	-11.6691
▁impress	-11.6692
▁rap	-11.6695
atch	-11.6697
Bon	-11.6699
▁Silvers	-11.67
make	-11.6713
▁dope	-11.6714
...............	-11.6716
▁rag	-11.6718
▁aficionado	-11.6726
▁newcomer	-11.6726
▁limit	-11.6727
▁bastard	-11.6727
▁chill	-11.6727
▁suspects	-11.6729
▁Point	-11.6734
▁evolution	-11.6734
▁Light	-11.6735
pped	-11.674
▁Sho	-11.6741
▁advance	-11.6742
▁sens	-11.6744
▁politic	-11.6745
▁traitor	-11.6745
▁shake	-11.6748
▁tourist	-11.6749
▁kidnap	-11.6752
▁predecessor	-11.6753
▁spouse	-11.6754
▁idol	-11.6754
▁poem	-11.6754
▁swing	-11.6755
▁bird	-11.6762
ighth	-11.6765
▁diamond	-11.6765
▁coincidence	-11.6765
▁antagonist	-11.6765
▁babe	-11.6773
▁screenwriter	-11.6774
dicated	-11.6775
▁Us	-11.6776
▁warrior	-11.6778
▁Queen	-11.678
self	-11.678
▁afterward	-11.6786
ire	-11.6793
▁aesthetic	-11.6793
▁bone	-11.68
▁hears	-11.6808
ON	-11.6808
▁2"	-11.681
▁lip	-11.6812
▁await	-11.6814
Any	-11.6824
▁mum	-11.6824
mp	-11.6831
▁Andrew	-11.6831
▁paranoi	-11.6833
War	-11.685
50	-11.6859
put	-11.686
▁photograph	-11.686
▁Class	-11.6861
acting	-11.6871
present	-11.6881
natural	-11.6888
▁tramp	-11.6892
mark	-11.6892
▁skin	-11.6907
▁disgust	-11.6907
▁tid	-11.6911
gene	-11.6912
▁bog	-11.6913
type	-11.6914
iv	-11.6916
▁conform	-11.6917
vid	-11.6917
coat	-11.6921
Give	-11.6921
dica	-11.6921
hold	-11.6921
▁figures	-11.6924
step	-11.6925
Hard	-11.6925
force	-11.6926
nick	-11.6926
▁credi	-11.6928
▁cram	-11.6931
▁gar	-11.6931
▁Work	-11.6932
give	-11.6932
▁arc	-11.6932
▁greet	-11.6932
pot	-11.6934
▁rul	-11.6934
Fata	-11.6935
Alive	-11.6937
Pierre	-11.694
True	-11.694
eXistenZ	-11.694
Family	-11.6941
Lost	-11.6941
Meanwhile	-11.6941
dead	-11.6942
winner	-11.6942
White	-11.6943
Back	-11.6943
winning	-11.6943
loud	-11.6943
Before	-11.6943
Kevin	-11.6943
Look	-11.6943
frame	-11.6944
Charlie	-11.6944
People	-11.6944
Louis	-11.6944
Meg	-11.6944
Batman	-11.6944
George	-11.6944
political	-11.6944
Richard	-11.6944
father	-11.6944
office	-11.6944
Chaplin	-11.6944
wife	-11.6944
daughter	-11.6944
Robert	-11.6944
power	-11.6944
Rene	-11.6944
everything	-11.6945
black	-11.6945
half	-11.6945
because	-11.6945
Everyone	-11.6945
length	-11.6945
Peter	-11.6945
▁heartbreak	-11.6946
Did	-11.6946
probably	-11.6947
why	-11.6947
both	-11.6948
▁promis	-11.6948
Top	-11.6949
must	-11.695
Russian	-11.6951
racial	-11.6952
interesting	-11.6952
Last	-11.6952
without	-11.6952
▁significan	-11.6953
▁resemble	-11.6954
Despite	-11.6954
▁disregard	-11.6954
▁Strange	-11.6955
▁Plane	-11.6956
▁sand	-11.6956
LA	-11.6957
▁labor	-11.6958
Man	-11.6959
▁flood	-11.696
▁float	-11.6964
▁bias	-11.6966
▁Kill	-11.6967
pity	-11.6968
iled	-11.6968
▁Cath	-11.6969
▁invent	-11.6969
▁Stu	-11.6971
▁repair	-11.6972
Charles	-11.6972
fans	-11.6973
▁incidental	-11.6974
▁rave	-11.6976
headed	-11.6977
▁amaze	-11.6977
▁respective	-11.6978
▁suspicio	-11.6978
▁cook	-11.698
▁prostitut	-11.698
▁sur	-11.6981
▁trait	-11.6981
▁hills	-11.6982
pre	-11.6983
▁restore	-11.6983
▁dirt	-11.6984
yard	-11.6985
▁infect	-11.6986
▁fiancé	-11.6987
▁preach	-11.6988
trude	-11.6988
▁ja	-11.6988
nice	-11.6988
▁cultures	-11.6989
▁Kan	-11.6993
much	-11.6994
▁manipulati	-11.6995
▁slash	-11.6995
Was	-11.6996
▁tire	-11.6997
▁imperfect	-11.6997
▁ambiguit	-11.6998
▁judgment	-11.6998
▁Congress	-11.6998
▁refine	-11.6999
▁import	-11.6999
avorite	-11.6999
▁Whil	-11.7
BALL	-11.7
▁surge	-11.7
@	-11.7
▁200	-11.7
reel	-11.7
▁'20	-11.7
▁Tarsem	-11.7
▁1943	-11.7
▁1944	-11.7
▁1998	-11.7
▁AMAZING	-11.7
▁Allegra	-11.7
▁Belmondo	-11.7
▁Brackett	-11.7
▁CLASSIC	-11.7
▁Cardona	-11.7
▁Cassidy	-11.7
▁Colombia	-11.7
▁Connecticut	-11.7
▁Corbucci	-11.7
▁Courtenay	-11.7
▁DANCING	-11.7
▁Dangerfield	-11.7
▁Department	-11.7
▁Dismis	-11.7
▁Floyd	-11.7
▁Gibson	-11.7
▁Gugino	-11.7
▁Heffernan	-11.7
▁Hooper	-11.7
▁Illuminated	-11.7
▁Jourdan	-11.7
▁Kabul	-11.7
▁Keitel	-11.7
▁Kinkade	-11.7
▁Kurosawa	-11.7
▁Lemmon	-11.7
▁Loaf	-11.7
▁Lupino	-11.7
▁Mallarino	-11.7
▁Murnau	-11.7
▁Nolte	-11.7
▁Oppenheimer	-11.7
▁Original	-11.7
▁Poitier	-11.7
▁Premminger	-11.7
▁Rahul	-11.7
▁Sakall	-11.7
▁Slotin	-11.7
▁Stooge	-11.7
▁Swoope	-11.7
▁Thirst	-11.7
▁Vasili	-11.7
▁Zhang	-11.7
▁accompaniment	-11.7
▁accomplice	-11.7
▁advertising	-11.7
▁association	-11.7
▁celluloid	-11.7
▁communicating	-11.7
▁confirm	-11.7
▁corridors	-11.7
▁cottage	-11.7
▁deceptive	-11.7
▁distinguish	-11.7
▁empathy	-11.7
▁emperor	-11.7
▁emphasize	-11.7
▁enthusiasm	-11.7
▁filmography	-11.7
▁fragile	-11.7
▁hypocrisy	-11.7
▁identical	-11.7
▁illegal	-11.7
▁implied	-11.7
▁incompetence	-11.7
▁incompetent	-11.7
▁infiltrate	-11.7
▁integrity	-11.7
▁motorcycle	-11.7
▁nymphomania	-11.7
▁parodie	-11.7
▁pastiche	-11.7
▁predicament	-11.7
▁profane	-11.7
▁rebellion	-11.7
▁sensitivity	-11.7
▁shrink	-11.7
▁smarmy	-11.7
▁staple	-11.7
▁stitches	-11.7
▁triangle	-11.7
▁unadulterated	-11.7
▁unleash	-11.7
▁wardrobe	-11.7
▁Amazon	-11.7
▁Congrat	-11.7
▁Hyde	-11.7
▁Knox	-11.7
▁MOVIE	-11.7
▁Mountain	-11.7
▁Project	-11.7
▁Ricci	-11.7
▁Shahrukh	-11.7
▁Square	-11.7
▁Tilney	-11.7
▁absent	-11.7
▁aftermath	-11.7
▁cruci	-11.7
▁gesture	-11.7
▁monolith	-11.7
▁opponent	-11.7
▁precious	-11.7
▁terrified	-11.7
▁whatsoever	-11.7
▁Farscape	-11.7
▁Renfro	-11.7
▁Sapir	-11.7
▁Serena	-11.7
▁culminati	-11.7
▁distance	-11.7
▁inherent	-11.7
▁paradox	-11.7
▁rainbow	-11.7
Klatret	-11.7
petition	-11.7
▁Babies	-11.7
▁remorse	-11.7
Quentin	-11.7
▁Caleb	-11.7
▁sumptuous	-11.7
ULL	-11.7
▁1955	-11.7
▁Condie	-11.7
▁Freeman	-11.7
▁Lorre	-11.7
▁Monica	-11.7
▁identifie	-11.7
▁palpable	-11.7
▁twentie	-11.7
▁1974	-11.7
▁Bardem	-11.7
▁gymnast	-11.7
▁Dobbs	-11.7
▁gloss	-11.7
▁monitor	-11.7
▁Dillon	-11.7
▁debt	-11.7
▁vacu	-11.7
▁Cohen	-11.7
▁Kruger	-11.7
▁Sawyer	-11.7
▁throat	-11.7
▁milestone	-11.7
▁Canada	-11.7
▁palace	-11.7
▁Serg	-11.7
▁breakfast	-11.7
▁techno	-11.7
▁prick	-11.7
▁weather	-11.7
▁Legend	-11.7
▁echo	-11.7
▁yarn	-11.7
▁devoid	-11.7
▁shatter	-11.7
▁chapter	-11.7
▁prestig	-11.7
▁Latin	-11.7
▁Rider	-11.7
▁depression	-11.7
▁philosophy	-11.7
▁profanity	-11.7
▁timid	-11.7
▁inconsistencies	-11.7
▁penny	-11.7
▁conscience	-11.7
▁lunatic	-11.7
▁1969	-11.7
▁1995	-11.7
▁dismay	-11.7
▁institution	-11.7
▁electronic	-11.7
▁Finland	-11.7
▁Government	-11.7
▁relish	-11.7
▁sensible	-11.7
▁Hilarious	-11.7
▁Starewicz	-11.7
▁Clooney	-11.7
▁Tarkovsky	-11.7
▁Chinatown	-11.7
▁Picard	-11.7
▁cerebral	-11.7
▁Jagger	-11.7
▁Buffalo	-11.7
▁Frederic	-11.7
▁Powell	-11.7001
▁massacre	-11.7001
▁railway	-11.7001
▁singular	-11.7001
▁Harbor	-11.7001
▁cynicism	-11.7001
▁CBC	-11.7001
buckle	-11.7001
▁narrator	-11.7001
▁noteworthy	-11.7001
▁Franco	-11.7001
▁circus	-11.7001
▁MacDonald	-11.7001
▁reservation	-11.7001
▁Evie	-11.7001
▁GOAT	-11.7001
▁distress	-11.7001
▁announcement	-11.7001
▁Raymar	-11.7001
▁wooden	-11.7001
▁distribution	-11.7001
▁Churchill	-11.7001
▁Norwegian	-11.7001
▁Shax	-11.7001
▁proceedings	-11.7001
▁Pitt	-11.7001
▁Watson	-11.7001
▁passport	-11.7001
▁knight	-11.7001
▁Def	-11.7001
▁Grier	-11.7001
▁Marx	-11.7001
▁Radio	-11.7001
▁lens	-11.7001
▁Push	-11.7001
▁subtly	-11.7001
othy	-11.7001
Semitism	-11.7001
▁misery	-11.7001
▁Devil	-11.7001
▁provocative	-11.7001
▁patrol	-11.7001
▁march	-11.7001
▁unsatisfied	-11.7001
▁deranged	-11.7001
▁swallow	-11.7001
▁flute	-11.7001
▁grit	-11.7001
▁Road	-11.7001
▁Potter	-11.7001
▁entranc	-11.7001
▁coward	-11.7002
▁Dodge	-11.7002
▁Country	-11.7002
▁remix	-11.7002
▁leather	-11.7002
RNING	-11.7002
▁click	-11.7002
▁werewolf	-11.7002
▁Wang	-11.7002
▁Jeffries	-11.7002
▁impeccable	-11.7002
▁laundr	-11.7002
▁offense	-11.7002
▁boost	-11.7002
▁Annabelle	-11.7002
▁idealistic	-11.7002
▁accountant	-11.7002
▁plague	-11.7002
▁despair	-11.7002
▁havoc	-11.7002
▁recollection	-11.7002
▁crass	-11.7002
▁skinny	-11.7002
▁underworld	-11.7002
▁Connelly	-11.7002
▁capacity	-11.7002
▁uncanny	-11.7002
▁Cannon	-11.7002
▁Peck	-11.7002
▁Poor	-11.7002
acious	-11.7002
▁melancholy	-11.7002
▁Egyptian	-11.7002
▁demeanor	-11.7003
▁tax	-11.7003
▁Tonight	-11.7003
▁repulsive	-11.7003
▁Carlton	-11.7003
▁Way	-11.7003
▁chord	-11.7003
▁commitment	-11.7003
▁Ullmann	-11.7003
▁Writer	-11.7003
▁cream	-11.7003
▁attached	-11.7003
▁max	-11.7003
▁destiny	-11.7003
▁toilet	-11.7003
▁vile	-11.7003
▁Aunt	-11.7003
▁misfit	-11.7003
▁clueless	-11.7004
▁dub	-11.7004
ctor	-11.7004
▁Wave	-11.7004
▁celebration	-11.7004
▁backwoods	-11.7004
▁diary	-11.7004
▁artistry	-11.7004
▁teammate	-11.7004
stein	-11.7004
▁contract	-11.7004
▁homosexuality	-11.7004
▁sought	-11.7005
▁knockout	-11.7005
▁uncover	-11.7005
▁Coach	-11.7005
▁gentleman	-11.7005
▁elsewhere	-11.7005
▁Sweden	-11.7005
▁CAR	-11.7005
▁handicap	-11.7006
▁Meat	-11.7006
▁stardom	-11.7006
▁Horner	-11.7006
▁Lifetime	-11.7006
▁saint	-11.7006
▁shootout	-11.7006
▁VC	-11.7006
▁Sammo	-11.7006
▁Dust	-11.7006
▁Hust	-11.7006
imir	-11.7006
▁Zone	-11.7006
▁prominent	-11.7006
▁taxi	-11.7006
GERS	-11.7007
▁Romeo	-11.7007
▁Nile	-11.7007
▁representation	-11.7008
▁Arab	-11.7008
▁Alejandro	-11.7008
▁Ameche	-11.7008
▁Mazzello	-11.7008
▁Porgy	-11.7008
▁Trouble	-11.7008
▁dilemma	-11.7008
▁insipid	-11.7008
▁museum	-11.7008
▁vintage	-11.7008
▁BAB	-11.7008
▁Elvis	-11.7008
▁exaggerated	-11.7008
▁Kudos	-11.7008
▁believability	-11.7008
▁Production	-11.7008
▁Diamond	-11.7008
▁Stephan	-11.7008
▁WHO	-11.7008
▁psychedelic	-11.7008
▁Fonda	-11.7008
▁Stuart	-11.7008
▁glamorous	-11.7008
▁flies	-11.7008
▁presumably	-11.7008
▁stereotyped	-11.7008
▁hoot	-11.7008
▁DeNiro	-11.7008
▁repressed	-11.7008
▁Ernest	-11.7008
▁Question	-11.7008
▁Shepherd	-11.7008
▁wolf	-11.7008
▁Renoir	-11.7008
▁Chips	-11.7008
▁inspirational	-11.7008
▁gum	-11.7009
▁trek	-11.7009
▁Break	-11.7009
▁Royal	-11.7009
▁beef	-11.7009
Bellucci	-11.7009
▁Angeles	-11.7009
▁'50	-11.7009
▁gate	-11.7009
▁tenderness	-11.7009
▁unsure	-11.7009
▁Flash	-11.701
▁45	-11.701
▁corporate	-11.701
▁Ramsey	-11.701
AV	-11.701
▁Burman	-11.701
▁Plot	-11.701
▁250	-11.701
▁Wife	-11.7011
▁undead	-11.7012
▁inspector	-11.7013
Alexand	-11.7013
▁hostess	-11.7013
itte	-11.7013
▁demented	-11.7013
▁arranged	-11.7013
▁spawned	-11.7013
▁overnight	-11.7013
erior	-11.7014
▁confine	-11.7014
▁grey	-11.7014
holic	-11.7014
▁infectious	-11.7015
▁assure	-11.7015
▁Agent	-11.7015
▁alas	-11.7015
▁Peterson	-11.7015
▁overweight	-11.7015
qualified	-11.7016
▁Carney	-11.7016
▁lush	-11.7016
uary	-11.7016
dridge	-11.7016
▁sofa	-11.7016
▁businessman	-11.7016
▁predat	-11.7017
ROW	-11.7017
▁overblown	-11.7017
▁inappropriate	-11.7017
▁inaccurate	-11.7017
▁pattern	-11.7017
▁gray	-11.7018
▁Norman	-11.7018
▁removed	-11.7018
▁blo	-11.7018
▁kisses	-11.7019
▁embarrassing	-11.702
▁Fuller	-11.702
▁stupidity	-11.702
▁signal	-11.702
-13	-11.702
▁bomber	-11.7021
▁declared	-11.7021
▁blank	-11.7021
▁Isabel	-11.7021
▁satisfaction	-11.7021
▁Turkish	-11.7021
▁buddy	-11.7022
▁dump	-11.7022
▁Ascent	-11.7023
▁Kyle	-11.7023
▁lane	-11.7023
▁ALL	-11.7023
▁popping	-11.7024
▁2000	-11.7024
▁flame	-11.7024
▁partial	-11.7025
▁Superman	-11.7025
▁smuggler	-11.7026
▁playful	-11.7026
▁Directed	-11.7026
▁rising	-11.7027
▁abruptly	-11.7027
▁scrap	-11.7027
▁punish	-11.7028
▁earrings	-11.7029
▁Burroughs	-11.7029
▁socks	-11.7029
▁Six	-11.7029
▁filthy	-11.7029
▁Tigers	-11.7029
▁Door	-11.7029
▁retreat	-11.7029
▁awareness	-11.703
▁Drey	-11.703
SD	-11.703
▁Locke	-11.703
▁Giant	-11.703
▁historic	-11.703
witting	-11.7032
▁activities	-11.7032
▁Find	-11.7032
▁matches	-11.7032
▁risky	-11.7034
▁characteristic	-11.7034
▁BTW	-11.7035
▁capital	-11.7035
con	-11.7035
▁lord	-11.7036
▁row	-11.7036
▁incidentally	-11.7036
▁Pul	-11.7037
iter	-11.7037
▁99	-11.7038
▁Must	-11.7039
▁redhead	-11.704
▁tag	-11.7041
▁foundation	-11.7041
▁THING	-11.7042
▁showdown	-11.7043
▁successor	-11.7044
migrant	-11.7044
▁pen	-11.7044
▁alluring	-11.7044
▁wishe	-11.7045
▁jun	-11.7045
▁CR	-11.7046
▁income	-11.7046
▁Jesse	-11.7046
wept	-11.7047
▁Eat	-11.7047
▁McCa	-11.7047
▁billed	-11.7048
▁threatened	-11.7048
▁selected	-11.7048
▁shirt	-11.7048
▁cheek	-11.7049
▁guaranteed	-11.7049
▁View	-11.7049
▁criticise	-11.705
▁Lyon	-11.705
▁Brooke	-11.705
▁Bay	-11.7051
▁divers	-11.7051
▁Annie	-11.7051
▁None	-11.7052
ov	-11.7053
▁mindless	-11.7053
▁Rich	-11.7053
▁suspens	-11.7054
▁neurotic	-11.7054
▁Gee	-11.7055
▁damaged	-11.7055
▁relaxed	-11.7056
▁Kon	-11.7056
▁laughable	-11.7058
▁Hero	-11.7059
▁Killing	-11.7059
Ewan	-11.7061
yet	-11.7063
▁cle	-11.7063
▁species	-11.7065
▁terroriz	-11.7068
▁Rocky	-11.7068
▁Lone	-11.7069
▁expressive	-11.707
▁hunter	-11.7071
60	-11.7072
▁Spacey	-11.7072
▁dashing	-11.7072
▁distracting	-11.7072
▁correctly	-11.7073
houl	-11.7073
▁AZ	-11.7073
▁Believe	-11.7074
pp	-11.7075
▁yards	-11.7076
erchant	-11.7079
▁breasts	-11.7079
▁factory	-11.7081
▁norm	-11.7082
▁outlaw	-11.7083
▁dive	-11.7084
▁Glass	-11.7085
▁Save	-11.7088
prise	-11.709
hin	-11.709
▁menace	-11.7091
ories	-11.7095
si	-11.7096
every	-11.7096
▁dragging	-11.7097
▁joll	-11.7101
▁sis	-11.7102
TEC	-11.7102
▁rat	-11.7107
▁retell	-11.7111
▁highlighted	-11.7111
▁flag	-11.7113
▁parties	-11.7116
▁balanced	-11.7116
last	-11.7117
▁Mer	-11.7119
▁Choi	-11.7124
▁drawing	-11.7125
rivate	-11.7126
▁summ	-11.7126
▁legal	-11.7129
▁whims	-11.713
▁Hills	-11.713
▁commentators	-11.713
▁arrested	-11.713
▁helpless	-11.713
▁corpses	-11.7131
▁mining	-11.7131
▁Stalingrad	-11.7132
▁remarks	-11.7134
▁clinic	-11.7134
▁Anders	-11.7134
▁pounding	-11.7135
tah	-11.7135
▁glu	-11.7138
▁clearer	-11.7144
▁Glor	-11.7147
▁wine	-11.7149
▁origin	-11.7151
▁joint	-11.7153
▁cleaner	-11.7158
▁revolt	-11.716
▁survived	-11.7166
▁Mut	-11.7167
▁Elean	-11.7167
splitting	-11.7172
▁stages	-11.7177
mund	-11.7179
▁suggested	-11.7182
▁motives	-11.7182
▁noises	-11.7182
▁geeks	-11.7182
▁Rein	-11.7182
▁guards	-11.7182
▁cycles	-11.7182
dere	-11.7187
mic	-11.7187
ently	-11.7199
▁crossed	-11.7201
▁pum	-11.7202
▁manic	-11.7204
▁Port	-11.7205
▁failing	-11.721
▁loosely	-11.7211
angst	-11.7212
▁alley	-11.7215
▁elit	-11.7217
▁Hot	-11.7217
those	-11.7222
▁app	-11.7227
▁unre	-11.723
emale	-11.7233
▁Stro	-11.7234
▁babes	-11.7234
▁slic	-11.7238
▁claimed	-11.724
▁Ti	-11.7246
initially	-11.7247
oriental	-11.7248
▁jobs	-11.7257
dance	-11.7261
imbo	-11.7264
▁accepting	-11.7265
10	-11.7266
fort	-11.7267
▁cur	-11.7267
wing	-11.7268
▁crossing	-11.7273
▁1.	-11.7281
▁sane	-11.7282
▁clients	-11.7287
▁arguments	-11.7287
▁hateful	-11.7292
▁/>***	-11.7296
▁idiotic	-11.7322
tal	-11.7324
▁relive	-11.7328
25	-11.7338
▁ele	-11.734
▁flees	-11.7341
▁List	-11.7342
▁sympathiz	-11.7346
phony	-11.7348
▁Aliens	-11.7354
▁Mov	-11.7357
▁conventions	-11.7357
▁ren	-11.7357
van	-11.736
▁BU	-11.7371
▁jaw	-11.7372
▁Spin	-11.7374
▁amid	-11.7382
▁Val	-11.7383
▁helm	-11.7384
pless	-11.7388
▁Classics	-11.7389
▁fools	-11.7392
▁parallels	-11.7392
▁shifts	-11.7392
▁neighbors	-11.7393
▁guts	-11.7399
▁hideou	-11.7399
ended	-11.74
▁rug	-11.7405
▁tit	-11.7407
batman	-11.7409
Luis	-11.7413
▁meal	-11.7414
▁heel	-11.742
▁sucks	-11.7427
yle	-11.7429
kel	-11.7433
▁hostilit	-11.7435
▁officials	-11.7446
▁triumphs	-11.7446
▁considerabl	-11.7447
su	-11.7449
▁sailors	-11.7455
ourist	-11.7463
▁Viv	-11.7465
▁Lowe	-11.7467
▁panic	-11.7475
rah	-11.7477
▁disappears	-11.7478
▁def	-11.7488
▁Andre	-11.7489
▁activit	-11.7491
▁Less	-11.7492
ache	-11.7494
▁waves	-11.7495
Witch	-11.7498
▁nerves	-11.75
▁Pictures	-11.75
▁sitcoms	-11.75
cutt	-11.7507
▁Der	-11.7525
Vera	-11.753
▁disco	-11.753
reality	-11.7542
▁fed	-11.7543
gle	-11.7543
▁recover	-11.7544
▁Bee	-11.7555
▁SP	-11.7559
▁handles	-11.7561
▁Raj	-11.7565
▁cab	-11.7565
▁Shin	-11.757
ening	-11.758
▁Times	-11.7582
▁-------------	-11.7597
laud	-11.7604
▁ghosts	-11.761
▁scares	-11.7613
ride	-11.762
▁interfere	-11.7623
ving	-11.7624
ett	-11.7633
recognizable	-11.7634
letting	-11.7638
▁wondered	-11.7642
▁questioning	-11.7642
itting	-11.7644
ripping	-11.7645
hop	-11.7645
▁admirabl	-11.7648
▁scored	-11.7649
▁lifts	-11.7651
ding	-11.7652
▁sections	-11.7663
▁ke	-11.7665
▁entertains	-11.7673
▁topics	-11.7673
Will	-11.7685
ini	-11.7688
rage	-11.769
▁Dru	-11.7699
lor	-11.7706
▁projects	-11.7712
▁Hal	-11.7713
▁coache	-11.7714
ished	-11.7735
▁accus	-11.7735
nger	-11.7738
▁lately	-11.7743
▁chat	-11.7744
▁roads	-11.7746
▁Nor	-11.7759
nberg	-11.777
▁pilots	-11.7773
uck	-11.7785
▁Friend	-11.7785
vi	-11.7789
▁bo	-11.7791
ival	-11.7799
rman	-11.7804
▁wounds	-11.7813
▁factors	-11.7813
main	-11.7813
lot	-11.7814
▁sites	-11.7815
16	-11.7821
mouse	-11.7823
▁Lea	-11.7833
doing	-11.7833
▁hurts	-11.7834
▁hack	-11.7834
▁tack	-11.7834
▁Hack	-11.7846
▁pave	-11.7852
im	-11.7866
ryan	-11.787
▁Za	-11.7875
▁roots	-11.7882
▁lesbians	-11.7884
▁veterans	-11.7884
▁perspectives	-11.7884
▁Chen	-11.7891
▁meditati	-11.7893
▁fli	-11.7896
▁formal	-11.7906
va	-11.7906
▁sends	-11.7913
titled	-11.7913
▁al	-11.7914
ator	-11.7919
▁smok	-11.7921
▁Wu	-11.7923
▁Sha	-11.7929
▁rooms	-11.794
▁Ri	-11.7947
foot	-11.7953
iz	-11.796
ailway	-11.7967
▁Hol	-11.797
aring	-11.7971
Crim	-11.7983
ITE	-11.7995
▁pr	-11.7997
omin	-11.8
▁drags	-11.8004
▁Sr	-11.8008
▁trace	-11.8009
ot	-11.8011
▁pok	-11.8019
▁Gra	-11.8021
▁tur	-11.8025
▁mouths	-11.8033
▁Ge	-11.8037
rous	-11.8037
▁Kin	-11.8038
▁prints	-11.8049
▁thi	-11.8052
rner	-11.8056
▁pranks	-11.8057
pping	-11.8063
gar	-11.8069
hip	-11.807
ura	-11.8074
▁Gil	-11.8076
cca	-11.8085
▁contribut	-11.8088
Men	-11.8089
▁emb	-11.8094
iffer	-11.8099
rainy	-11.8108
▁longing	-11.8113
mes	-11.8119
ep	-11.8122
▁tin	-11.8123
Hav	-11.8128
▁channels	-11.813
▁vot	-11.8133
▁pot	-11.8133
▁panthe	-11.8136
5)	-11.8142
▁News	-11.8143
uz	-11.8148
mon	-11.8152
▁bitch	-11.8152
▁char	-11.8156
▁Brig	-11.8156
▁drinks	-11.8167
wed	-11.8189
▁oppress	-11.8194
▁Ram	-11.8195
▁sa	-11.8195
ffer	-11.8196
▁Dud	-11.8201
▁operat	-11.8212
▁(197	-11.8216
ranged	-11.8217
▁Whi	-11.8224
▁Days	-11.8225
ecca	-11.8246
sp	-11.8251
▁Girls	-11.8252
pic	-11.8253
▁Pre	-11.8263
then	-11.8269
▁Gre	-11.827
▁Shows	-11.8283
ssa	-11.8285
▁tortur	-11.8286
▁Age	-11.8288
▁mega	-11.8293
▁narrate	-11.8299
arded	-11.8312
▁Dit	-11.8313
isation	-11.8317
▁em	-11.8341
▁wra	-11.8357
▁Gass	-11.8358
▁Curt	-11.8365
creased	-11.8366
lad	-11.8371
IR	-11.8379
▁30'	-11.8388
▁indicat	-11.8396
▁favourites	-11.8401
▁ads	-11.8422
▁Fatal	-11.8443
▁Make	-11.8444
▁senil	-11.8453
Al	-11.8467
aff	-11.8468
▁Rom	-11.8487
▁bann	-11.849
met	-11.8493
au	-11.8494
ancy	-11.8496
▁flu	-11.8504
sch	-11.8505
indulgent	-11.8518
▁conclusions	-11.8519
▁Ou	-11.852
▁ve	-11.8523
▁enhanc	-11.8524
solving	-11.8533
▁Cart	-11.8546
▁nights	-11.8549
▁Wal	-11.8562
qu	-11.857
▁killings	-11.858
▁hop	-11.858
▁deaths	-11.858
▁encourag	-11.8585
▁unite	-11.8585
stick	-11.8592
aw	-11.8592
track	-11.8613
▁Ade	-11.8626
▁Ya	-11.8652
▁indicate	-11.8667
▁Berna	-11.8667
Communist	-11.867
▁endur	-11.867
▁#	-11.8678
basti	-11.8681
lette	-11.8682
Mob	-11.8684
EAR	-11.8715
vert	-11.872
hn	-11.8726
gun	-11.8734
▁Gree	-11.8737
▁exp	-11.8738
▁adher	-11.8744
Can	-11.8744
▁str	-11.8772
umph	-11.8801
ward	-11.8807
▁unreal	-11.8809
▁Ly	-11.8815
▁MI	-11.882
/10	-11.8823
▁grin	-11.8823
▁relates	-11.8829
lin	-11.8829
▁Trip	-11.884
▁seconds	-11.8842
▁shed	-11.8848
ika	-11.885
avo	-11.8857
minority	-11.8874
rsey	-11.8877
▁Base	-11.8877
mouthed	-11.8883
▁strengths	-11.8885
▁tip	-11.8889
lent	-11.8891
actor	-11.8893
▁cent	-11.8894
▁dodg	-11.8899
▁FA	-11.8902
ane	-11.8902
play	-11.8903
▁Terr	-11.8915
▁Tak	-11.892
▁bla	-11.8931
discovered	-11.8932
▁rig	-11.894
ow	-11.894
ures	-11.8941
▁stations	-11.8944
▁existential	-11.8945
umble	-11.8959
▁launche	-11.8964
rigg	-11.8969
▁Thi	-11.8973
▁Tour	-11.8974
▁DR	-11.8978
ational	-11.8991
▁$1	-11.8996
addy	-11.9001
ologist	-11.9007
rim	-11.9021
aimed	-11.9025
▁drum	-11.9026
show	-11.9029
uckling	-11.9031
oc	-11.9033
▁**	-11.9035
Certain	-11.9037
▁Brand	-11.9043
gh	-11.9049
▁Stra	-11.9056
rew	-11.9056
▁defi	-11.9058
whereas	-11.9059
ptical	-11.906
oid	-11.9063
▁vo	-11.9066
▁listens	-11.9073
oxy	-11.9077
scale	-11.9082
▁slo	-11.9087
▁Ku	-11.9095
▁Leo	-11.9096
PS	-11.9102
▁purp	-11.9122
ional	-11.9127
▁doctors	-11.913
▁Reb	-11.914
llows	-11.9144
▁sentiment	-11.9148
spoiler	-11.9155
playing	-11.9156
anor	-11.9163
▁stru	-11.9169
ug	-11.917
▁screw	-11.9185
▁surpass	-11.9188
cation	-11.9191
▁Pf	-11.9193
minute	-11.9198
served	-11.9202
monster	-11.9209
fest	-11.921
game	-11.9212
jah	-11.9216
port	-11.9217
▁ax	-11.9219
▁Ko	-11.922
maker	-11.9222
▁Bing	-11.9224
▁Brook	-11.9226
▁absence	-11.9227
▁oscar	-11.9228
▁conquer	-11.9228
▁german	-11.923
▁enthusiast	-11.9233
▁Dog	-11.9234
▁Gab	-11.9236
▁yellow	-11.9238
▁twin	-11.9238
▁pool	-11.9239
▁sew	-11.924
▁expresse	-11.9247
▁guard	-11.9252
▁request	-11.9254
▁geek	-11.9254
▁knee	-11.9255
▁VCR	-11.9255
▁junkie	-11.9256
▁ballad	-11.9256
▁designs	-11.9256
▁Pola	-11.9257
▁beast	-11.9258
new	-11.9264
▁Romance	-11.9264
▁Este	-11.9265
▁cage	-11.9265
▁composition	-11.9265
▁apple	-11.9266
▁bisexual	-11.9267
▁sensation	-11.9268
▁cliché	-11.9268
hy	-11.9269
▁Nin	-11.927
ccording	-11.9271
▁motive	-11.9272
▁cycle	-11.9274
▁illusion	-11.9276
▁ingredient	-11.9276
Cho	-11.9277
date	-11.9278
▁admirer	-11.9279
▁colleague	-11.9279
▁Bir	-11.9283
▁Year	-11.9284
▁melt	-11.9285
▁youngster	-11.929
lies	-11.929
▁mile	-11.9291
▁State	-11.9292
▁Return	-11.9296
▁noise	-11.9297
ically	-11.9298
▁recommendation	-11.9299
▁lad	-11.9302
▁stra	-11.9304
▁vulgar	-11.9305
gging	-11.9308
▁sketch	-11.9309
Q	-11.9309
.00	-11.9313
▁glue	-11.9326
ulous	-11.9326
▁knit	-11.9337
▁gra	-11.9338
▁coin	-11.9345
rudge	-11.9346
▁hood	-11.9351
▁net	-11.9354
▁flip	-11.936
3)	-11.9364
▁flower	-11.9365
▁Con	-11.9369
hnic	-11.9373
▁36	-11.9378
Play	-11.938
▁revolution	-11.9383
▁Rave	-11.9385
world	-11.9385
sexual	-11.9387
under	-11.9389
▁grip	-11.9392
ugu	-11.9395
ooney	-11.9397
mou	-11.9397
place	-11.9398
Thirt	-11.94
▁blurr	-11.9405
▁surround	-11.9408
arise	-11.941
mouth	-11.941
▁Gro	-11.9411
special	-11.9414
▁preten	-11.9414
qua	-11.9415
grow	-11.9421
Ten	-11.9422
Thriller	-11.9426
Vampyr	-11.9426
_	-11.9426
Zatch	-11.9427
worth	-11.9427
know	-11.9428
▁cheer	-11.9428
Marc	-11.943
▁campaign	-11.9431
▁worm	-11.9432
Heaven	-11.9434
tease	-11.9434
Connor	-11.9434
Compar	-11.9434
tch	-11.9435
smith	-11.9436
sleep	-11.9437
Bobby	-11.9437
Nichol	-11.9438
cheek	-11.9439
▁enlighten	-11.944
Friends	-11.944
Until	-11.944
Throw	-11.944
Super	-11.944
Pop	-11.9441
Beyond	-11.9441
Princess	-11.9441
shirt	-11.9441
Matt	-11.9441
Frank	-11.9441
Roy	-11.9442
drama	-11.9442
wanna	-11.9442
Horror	-11.9442
Murder	-11.9442
stock	-11.9442
▁unsettl	-11.9442
Worth	-11.9443
Golden	-11.9443
Burt	-11.9443
Blood	-11.9443
Scarlett	-11.9443
Henry	-11.9443
Helen	-11.9443
Everything	-11.9443
Christopher	-11.9443
Bruce	-11.9444
Robin	-11.9444
likable	-11.9444
chick	-11.9444
break	-11.9444
husband	-11.9444
modern	-11.9444
together	-11.9444
▁gems	-11.9444
Great	-11.9444
through	-11.9445
Hollywood	-11.9445
maybe	-11.9445
Black	-11.9445
wonderful	-11.9445
moving	-11.9445
anything	-11.9445
Rating	-11.9445
Mark	-11.9445
fighter	-11.9445
Over	-11.9445
starred	-11.9445
Where	-11.9445
message	-11.9446
heel	-11.9446
Sadly	-11.9446
pick	-11.9447
Betty	-11.9447
little	-11.9448
▁refresh	-11.9448
Ray	-11.9448
▁dim	-11.9449
needed	-11.9449
unless	-11.9449
Sean	-11.9449
nity	-11.9449
OF	-11.9449
bay	-11.945
beside	-11.945
better	-11.945
hour	-11.945
▁cloth	-11.9451
fix	-11.9451
▁Eber	-11.9451
Come	-11.9451
patriot	-11.9451
▁Allie	-11.9451
15	-11.9452
▁Suffic	-11.9453
▁aerial	-11.9453
mind	-11.9454
▁Often	-11.9454
rence	-11.9454
worthy	-11.9455
dramatic	-11.9455
walk	-11.9456
▁Tyr	-11.9456
sci	-11.9456
▁warrant	-11.9456
▁alter	-11.9459
▁fetch	-11.946
▁construct	-11.946
Fire	-11.9462
neck	-11.9462
▁acclaim	-11.9463
▁Interesting	-11.9463
▁incorporate	-11.9464
▁abandon	-11.9464
▁Architect	-11.9464
▁Lock	-11.9465
▁abrupt	-11.9466
Five	-11.9468
▁digit	-11.9468
Many	-11.9469
aware	-11.9469
▁Bull	-11.947
▁intentional	-11.947
▁thankful	-11.9471
etective	-11.9471
onetheless	-11.9472
▁extend	-11.9474
▁literal	-11.9475
▁remove	-11.9477
stairs	-11.9478
list	-11.9478
▁execute	-11.9479
▁confuse	-11.9479
▁render	-11.948
▁Korea	-11.948
rdent	-11.948
▁locate	-11.948
▁McCo	-11.9481
▁Final	-11.9482
▁grant	-11.9482
▁stud	-11.9483
▁adventur	-11.9483
▁Falcon	-11.9483
▁celebrit	-11.9483
bo	-11.9485
▁grain	-11.9487
▁unbelievabl	-11.9487
▁fright	-11.9487
▁increasing	-11.9488
iation	-11.9488
www	-11.9489
▁hung	-11.9489
▁retrospect	-11.949
▁Fight	-11.9492
▁Carne	-11.9492
bbey	-11.9493
▁imp	-11.9494
▁dang	-11.9495
God	-11.9495
Soon	-11.9495
▁cynic	-11.9496
▁virgin	-11.9496
▁Russel	-11.9496
Luk	-11.9497
hoebe	-11.9498
▁corrupt	-11.9498
ception	-11.9498
etween	-11.9498
▁junk	-11.9498
hibit	-11.9498
player	-11.9499
▁vital	-11.9499
chiev	-11.9499
▁Schm	-11.9499
▁curio	-11.95
▁Church	-11.95
▁thieve	-11.95
▁access	-11.95
▁compassion	-11.95
▁Psycho	-11.95
▁narc	-11.95
▁psyche	-11.95
Casablanca	-11.95
▁Haneke	-11.95
▁Hepplewhite	-11.95
▁Malkovich	-11.95
▁Roebuck	-11.95
▁potent	-11.95
▁radian	-11.95
▁sculpt	-11.95
+++	-11.95
Nikki	-11.95
Pacino	-11.95
Titanic	-11.95
]	-11.95
}	-11.95
­	-11.95
▁1941	-11.95
▁Applebaum	-11.95
▁Bakjwi	-11.95
▁Baldwin	-11.95
▁Bangladesh	-11.95
▁Bettany	-11.95
▁Bogotá	-11.95
▁Brandauer	-11.95
▁Brewster	-11.95
▁CHOMPS	-11.95
▁Committee	-11.95
▁Constantine	-11.95
▁Coyote	-11.95
▁Cruise	-11.95
▁December	-11.95
▁Denver	-11.95
▁Dinesen	-11.95
▁Empty	-11.95
▁FILM	-11.95
▁Famous	-11.95
▁Frankenheimer	-11.95
▁GOD	-11.95
▁Giamatti	-11.95
▁Hocken	-11.95
▁Hopper	-11.95
▁Idiocracy	-11.95
▁Initially	-11.95
▁Jouvet	-11.95
▁Kaufman	-11.95
▁Kilbride	-11.95
▁Kobayashi	-11.95
▁LOST	-11.95
▁Leguizamo	-11.95
▁McCl	-11.95
▁McKenna	-11.95
▁McLoughlin	-11.95
▁Melanie	-11.95
▁Mexico	-11.95
▁Miami	-11.95
▁Mikuru	-11.95
▁Minghella	-11.95
▁Napoleon	-11.95
▁Nesbit	-11.95
▁Norrington	-11.95
▁Pacific	-11.95
▁Pakistan	-11.95
▁Penelope	-11.95
▁Phoenix	-11.95
▁Plotnikov	-11.95
▁Possibly	-11.95
▁RIDE	-11.95
▁Rafelson	-11.95
▁Rahman	-11.95
▁Ratnam	-11.95
▁Resident	-11.95
▁Ricardo	-11.95
▁Samoilova	-11.95
▁Schrader	-11.95
▁Schwar	-11.95
▁September	-11.95
▁Sheriff	-11.95
▁Silva	-11.95
▁Simmons	-11.95
▁Snipes	-11.95
▁Stryker	-11.95
▁Suddenly	-11.95
▁Sullivan	-11.95
▁THRILLER	-11.95
▁Together	-11.95
▁Toronto	-11.95
▁Turturro	-11.95
▁VENGEANCE	-11.95
▁YEARS	-11.95
▁Zellwegger	-11.95
▁Zurer	-11.95
▁abstract	-11.95
▁acknowledge	-11.95
▁adversity	-11.95
▁amnesia	-11.95
▁appalling	-11.95
▁atrocious	-11.95
▁burglar	-11.95
▁ceiling	-11.95
▁companies	-11.95
▁conceived	-11.95
▁concentration	-11.95
▁concussion	-11.95
▁cruise	-11.95
▁dentist	-11.95
▁eastern	-11.95
▁feisty	-11.95
▁fierce	-11.95
▁foreboding	-11.95
▁frustrating	-11.95
▁gypsies	-11.95
▁hesitant	-11.95
▁hitchhiker	-11.95
▁horizon	-11.95
▁hormon	-11.95
▁inconsistent	-11.95
▁incorrect	-11.95
▁limbs	-11.95
▁locomotive	-11.95
▁mannequin	-11.95
▁masculin	-11.95
▁monologue	-11.95
▁mundane	-11.95
▁negotiat	-11.95
▁nemesis	-11.95
▁nephew	-11.95
▁newspaper	-11.95
▁overshadow	-11.95
▁peculiar	-11.95
▁perpetual	-11.95
▁precocious	-11.95
▁prevail	-11.95
▁pseudo	-11.95
▁rebellious	-11.95
▁scarecrow	-11.95
▁servant	-11.95
▁staircase	-11.95
▁stylized	-11.95
▁surveillance	-11.95
▁tendencies	-11.95
▁tomorrow	-11.95
▁underwear	-11.95
▁unfamiliar	-11.95
▁unmistakable	-11.95
▁vampirism	-11.95
▁violin	-11.95
▁volatile	-11.95
▁vulnerability	-11.95
uspiria	-11.95
▁Balzac	-11.95
▁Clarence	-11.95
▁Emma	-11.95
▁Fernand	-11.95
▁Fuhrman	-11.95
▁Interview	-11.95
▁Klein	-11.95
▁Novgorod	-11.95
▁Riddle	-11.95
▁SIX	-11.95
▁Screenplay	-11.95
▁Surprise	-11.95
▁Sydow	-11.95
▁Toyoda	-11.95
▁barriers	-11.95
▁clique	-11.95
▁degenerate	-11.95
▁grief	-11.95
▁infatuat	-11.95
▁mercenar	-11.95
▁razor	-11.95
▁sociopath	-11.95
▁suave	-11.95
▁voicing	-11.95
OTHER	-11.95
imitating	-11.95
|	-11.95
▁Adjani	-11.95
▁Charrier	-11.95
▁Leachman	-11.95
▁Oxford	-11.95
▁Poncelet	-11.95
▁Quigley	-11.95
▁Scully	-11.95
▁Tamura	-11.95
▁alibi	-11.95
▁allegory	-11.95
▁clown	-11.95
▁exploitative	-11.95
▁faint	-11.95
▁flavor	-11.95
▁intimidati	-11.95
▁luxur	-11.95
▁necessit	-11.95
▁nutshell	-11.95
▁prince	-11.95
▁refrain	-11.95
▁sarcas	-11.95
▁sensibilit	-11.95
▁sizzl	-11.95
▁vomit	-11.95
leopa	-11.95
▁BLUE	-11.95
▁Complete	-11.95
▁Internet	-11.95
▁constrain	-11.95
▁permit	-11.95
▁1952	-11.95
▁Chief	-11.95
▁Clearly	-11.95
▁Elwes	-11.95
▁Greenstreet	-11.95
▁quirkiness	-11.95
llegedly	-11.95
▁1997	-11.95
▁BRING	-11.95
▁NORTH	-11.95
▁Profess	-11.95
▁Squad	-11.95
▁smell	-11.95
▁solemn	-11.95
▁zoom	-11.95
▁Armstrong	-11.95
▁1953	-11.95
▁Seagal	-11.95
▁detach	-11.95
▁isolation	-11.95
▁reassur	-11.95
▁tennis	-11.95
▁ultra	-11.95
▁Torture	-11.95
▁distort	-11.95
▁harbor	-11.95
egger	-11.95
▁Horton	-11.95
▁Vienna	-11.95
▁Remini	-11.95
▁abusive	-11.95
▁evolve	-11.95
▁lestat	-11.95
▁melodi	-11.95
▁windmill	-11.95
▁ANTM	-11.95
▁Hassan	-11.95
▁Spider	-11.95
▁pulp	-11.95
▁fluff	-11.95
▁garden	-11.95
▁compassionate	-11.95
▁studied	-11.95
▁bathroom	-11.95
▁Boulton	-11.95
▁LOL	-11.95
▁Lynn	-11.95
▁1958	-11.95
▁Borat	-11.95
▁slut	-11.95
▁chunk	-11.95
▁exiting	-11.95
▁hetero	-11.95
▁minimum	-11.95
▁1956	-11.95
▁omit	-11.95
▁polite	-11.95
▁Jarda	-11.95
▁allusion	-11.95
▁bittersweet	-11.95
▁captive	-11.95
▁hilarity	-11.95
▁representative	-11.95
▁slaying	-11.95
▁Chiba	-11.95
▁Trail	-11.95
▁cohesi	-11.95
▁derive	-11.95
▁riddle	-11.95
▁Jacklings	-11.95
▁Tracy	-11.95
▁essay	-11.95
▁1920	-11.95
▁Rambo	-11.95
▁patriarch	-11.95
▁Piggy	-11.95
▁1927	-11.95
▁GOLD	-11.95
▁chaos	-11.95
Rosemary	-11.95
▁discount	-11.95
▁Freemanville	-11.95
▁democracy	-11.95
▁rejoice	-11.95
ADE	-11.95
▁cunning	-11.95
▁radiation	-11.95
ghast	-11.95
▁Lagoon	-11.95
▁Mustang	-11.95
▁Groves	-11.95
▁telephone	-11.95
▁maverick	-11.95
▁obligat	-11.95
▁royal	-11.95
haolin	-11.95
▁bigotry	-11.95
▁pirate	-11.95
▁taut	-11.9501
HOUL	-11.9501
▁Busey	-11.9501
▁miniseries	-11.9501
▁McGregor	-11.9501
▁Flag	-11.9501
▁STARS	-11.9501
▁Richter	-11.9501
▁monkey	-11.9501
▁scatter	-11.9501
▁worship	-11.9501
▁abundance	-11.9501
▁instructor	-11.9501
▁Football	-11.9501
▁Kester	-11.9501
▁Morocco	-11.9501
▁rational	-11.9501
▁resume	-11.9501
▁Tenney	-11.9501
▁chef	-11.9501
▁Cheadle	-11.9501
▁drain	-11.9501
▁estate	-11.9501
▁pertain	-11.9501
▁risqu	-11.9501
▁Harlan	-11.9501
▁whipping	-11.9501
▁unsaid	-11.9501
▁Nanny	-11.9501
▁Silverman	-11.9501
▁Strauss	-11.9501
Typical	-11.9501
▁craving	-11.9501
▁pervert	-11.9501
▁prospective	-11.9501
▁milk	-11.9501
▁moderate	-11.9501
▁spotlight	-11.9501
▁skipped	-11.9501
▁thread	-11.9501
▁wrap	-11.9501
▁wretch	-11.9501
Dragnet	-11.9501
▁commentaries	-11.9501
▁barrel	-11.9501
▁bash	-11.9501
▁ppl	-11.9501
Heimat	-11.9501
▁Wax	-11.9501
▁dawn	-11.9501
▁wrist	-11.9501
odar	-11.9501
▁miscast	-11.9501
▁cheesiness	-11.9501
▁Evans	-11.9501
▁emptiness	-11.9501
▁regain	-11.9501
▁FOR	-11.9501
▁pluck	-11.9501
▁reconsider	-11.9501
▁forgettable	-11.9501
▁Sport	-11.9501
▁intact	-11.9501
▁Gonzo	-11.9501
▁Gentleman	-11.9501
▁sweetheart	-11.9501
▁tagline	-11.9502
▁'40	-11.9502
▁Montand	-11.9502
▁Richards	-11.9502
▁semen	-11.9502
▁Commander	-11.9502
▁Lift	-11.9502
▁Slasher	-11.9502
▁blackmail	-11.9502
▁vitality	-11.9502
▁Bacon	-11.9502
▁51	-11.9502
▁Bynes	-11.9502
▁Winner	-11.9502
▁depressed	-11.9502
▁Feast	-11.9502
▁Sergeant	-11.9502
▁Model	-11.9502
▁unoriginal	-11.9502
▁proportion	-11.9502
▁reclaim	-11.9502
▁intrepid	-11.9502
▁logo	-11.9502
▁Jimbo	-11.9502
▁Downey	-11.9502
▁CHOP	-11.9502
▁cursing	-11.9502
▁Grease	-11.9502
▁spider	-11.9502
▁interior	-11.9502
▁Kern	-11.9502
▁studies	-11.9502
▁laser	-11.9502
▁quip	-11.9502
▁authorities	-11.9502
▁Order	-11.9502
▁Cancan	-11.9502
▁Cuk	-11.9502
▁folklore	-11.9502
▁miserable	-11.9502
▁primitive	-11.9502
▁Lenz	-11.9502
▁aggressi	-11.9503
▁phenomena	-11.9503
▁Aldo	-11.9503
▁sensuality	-11.9503
Macbeth	-11.9503
▁Gale	-11.9503
▁consciousness	-11.9503
▁EVERY	-11.9503
▁deserving	-11.9503
▁Hind	-11.9503
▁Sanders	-11.9503
▁Hungary	-11.9503
▁Glover	-11.9503
▁Prison	-11.9503
▁establishment	-11.9503
▁qualif	-11.9503
▁Superb	-11.9503
▁fangs	-11.9503
▁WILL	-11.9503
▁Mighty	-11.9503
▁adversary	-11.9503
▁decline	-11.9503
▁slimy	-11.9503
▁cranky	-11.9503
▁192	-11.9503
▁pimp	-11.9503
▁Kidman	-11.9503
▁Bowman	-11.9503
▁boredom	-11.9503
▁Journey	-11.9503
▁impersonation	-11.9503
▁uncut	-11.9503
▁Terror	-11.9503
▁starving	-11.9503
▁covet	-11.9503
rumpy	-11.9503
▁corner	-11.9503
▁retard	-11.9503
▁ponderous	-11.9503
▁Luma	-11.9503
clined	-11.9504
▁mankind	-11.9504
▁Petit	-11.9504
▁amateurish	-11.9504
▁crave	-11.9504
▁selection	-11.9504
▁brass	-11.9504
▁Price	-11.9504
▁Derry	-11.9504
▁Carson	-11.9504
natured	-11.9504
▁Henson	-11.9504
raci	-11.9504
▁Wol	-11.9504
▁Christie	-11.9504
▁OZ	-11.9504
▁viewpoint	-11.9505
▁imitate	-11.9505
2:37	-11.9505
tape	-11.9505
▁suspend	-11.9505
▁FX	-11.9505
▁Flea	-11.9505
▁animator	-11.9505
beca	-11.9505
▁continuation	-11.9505
▁stale	-11.9505
▁Kiran	-11.9505
▁Morse	-11.9505
▁Peach	-11.9506
▁kidding	-11.9506
▁Crowe	-11.9506
▁Marcela	-11.9506
ARD	-11.9506
Robbery	-11.9506
▁Disc	-11.9506
▁mythology	-11.9506
▁STE	-11.9506
▁Pica	-11.9506
▁jealousies	-11.9506
▁resonan	-11.9506
▁Carey	-11.9506
▁Franz	-11.9506
▁boom	-11.9506
▁Schweig	-11.9506
▁Accepted	-11.9506
▁ridiculed	-11.9506
▁Madness	-11.9507
▁intertwined	-11.9507
▁superiority	-11.9507
▁distraction	-11.9507
▁paradise	-11.9507
▁overthrow	-11.9507
▁undiscovered	-11.9507
▁progression	-11.9507
▁forgiveness	-11.9507
▁Duff	-11.9507
▁Station	-11.9507
▁artistically	-11.9508
rray	-11.9508
▁Danson	-11.9508
▁parade	-11.9508
▁scum	-11.9508
▁Noir	-11.9508
▁1965	-11.9508
▁academy	-11.9508
▁patent	-11.9508
▁Slight	-11.9508
▁Rap	-11.9508
▁ruby	-11.9508
arisa	-11.9508
▁Producer	-11.9508
▁cocky	-11.9508
▁motel	-11.9509
▁continuous	-11.9509
▁funky	-11.9509
▁Rather	-11.9509
▁stake	-11.9509
▁merchant	-11.9509
▁crawl	-11.9509
▁selfishness	-11.951
▁couch	-11.951
▁swashbuckling	-11.951
▁buck	-11.951
▁staggering	-11.951
▁stating	-11.951
▁entangle	-11.951
imum	-11.951
▁jack	-11.951
▁weaknesses	-11.951
▁Dictator	-11.951
▁Griffin	-11.951
▁Hua	-11.951
▁Purgatory	-11.951
▁Travolta	-11.951
▁pocket	-11.951
▁1979	-11.951
▁Holiday	-11.951
▁Jazz	-11.951
▁MUMMY	-11.951
▁Merkerson	-11.951
▁Odyssey	-11.951
▁Rodgers	-11.951
▁Schneider	-11.951
▁Television	-11.951
▁Vanaja	-11.951
▁comprehend	-11.951
▁enthralling	-11.951
▁penalty	-11.951
▁resolution	-11.951
▁satisfactory	-11.951
▁Santiago	-11.951
▁Vampire	-11.951
▁inviting	-11.951
▁Parents	-11.951
▁crisp	-11.951
▁morph	-11.951
▁Ashok	-11.951
▁Tiffany	-11.951
▁Scooby	-11.951
▁PLEASE	-11.951
▁swimming	-11.951
▁polar	-11.951
▁Lake	-11.951
▁Making	-11.9511
▁poverty	-11.9511
▁overworked	-11.9511
▁Reserv	-11.9511
▁2009	-11.9511
▁bitterness	-11.9511
▁visible	-11.9511
▁Perez	-11.9511
▁rubbish	-11.9511
▁Klaus	-11.9511
▁Cassell	-11.9511
▁Doc	-11.9511
▁hungry	-11.9511
▁DAY	-11.9511
▁Bobbie	-11.9511
▁confidence	-11.9511
▁Regard	-11.9511
▁fever	-11.9511
▁battl	-11.9511
▁Someday	-11.9511
▁Said	-11.9512
▁empathi	-11.9512
▁expose	-11.9512
say	-11.9512
▁retrospective	-11.9512
▁gush	-11.9512
▁university	-11.9512
▁Hoot	-11.9512
▁Slater	-11.9512
▁sync	-11.9512
▁crusade	-11.9512
▁muscle	-11.9513
▁*****	-11.9513
▁Roland	-11.9513
▁fop	-11.9513
▁Front	-11.9513
▁bucket	-11.9513
▁Lori	-11.9513
▁nerdy	-11.9513
▁Hartman	-11.9513
▁SILEN	-11.9513
▁Driver	-11.9513
▁posture	-11.9513
▁experimental	-11.9513
▁Cheers	-11.9514
Me	-11.9514
▁patch	-11.9514
▁GRA	-11.9514
▁June	-11.9514
▁chess	-11.9514
▁Highland	-11.9514
▁skater	-11.9515
▁Chapel	-11.9515
▁engineer	-11.9515
▁conductor	-11.9515
▁overlong	-11.9515
▁Sang	-11.9515
iously	-11.9515
eering	-11.9516
▁downbeat	-11.9516
▁'80	-11.9516
▁manga	-11.9516
▁stretches	-11.9516
▁Pick	-11.9516
▁greed	-11.9516
cott	-11.9516
▁oblivion	-11.9516
▁23	-11.9517
▁ME	-11.9517
candal	-11.9517
▁improvised	-11.9517
▁Buff	-11.9518
▁sink	-11.9518
▁Arch	-11.9518
▁MTV	-11.9518
▁outpost	-11.9518
▁oddest	-11.9518
▁geeky	-11.9518
▁churn	-11.9518
▁familiarity	-11.9518
ement	-11.9519
▁Tilly	-11.9519
▁Shore	-11.9519
▁nihilis	-11.9519
▁Willie	-11.952
▁dogged	-11.9521
▁punches	-11.9521
▁overboard	-11.9521
▁Herman	-11.9521
▁Masa	-11.9522
pion	-11.9522
▁bitten	-11.9522
Tunes	-11.9522
▁tidy	-11.9523
▁inept	-11.9523
▁scratch	-11.9523
▁subconscious	-11.9523
▁preachy	-11.9523
▁climb	-11.9523
▁Theresa	-11.9523
▁operation	-11.9524
▁dork	-11.9524
▁Martino	-11.9524
▁startling	-11.9524
▁plumb	-11.9524
▁/>8/10	-11.9524
▁richest	-11.9525
▁mildly	-11.9525
▁exclusively	-11.9525
▁Daily	-11.9525
▁Ack	-11.9526
▁glowing	-11.9526
▁bullying	-11.9527
▁readily	-11.9527
▁Grand	-11.9527
▁convert	-11.9527
righteous	-11.9528
▁Mahmut	-11.9528
▁Nightmare	-11.9528
▁Raab	-11.9528
▁Tanuja	-11.9528
▁Enjoy	-11.9528
▁dvd	-11.9528
▁queen	-11.9528
▁tube	-11.9528
▁mounted	-11.9529
▁wives	-11.9529
▁exploited	-11.9529
▁batter	-11.9529
scope	-11.9529
▁String	-11.953
▁LP	-11.953
tight	-11.953
▁realities	-11.953
▁Rivera	-11.9531
▁cookie	-11.9531
▁Bush	-11.9531
▁cling	-11.9531
▁hatch	-11.9531
▁dec	-11.9532
▁apes	-11.9532
▁coolest	-11.9532
▁shiver	-11.9532
▁Found	-11.9532
▁Should	-11.9533
▁stark	-11.9533
▁outrage	-11.9533
▁Seriously	-11.9533
▁Hermann	-11.9533
upon	-11.9534
▁speeches	-11.9535
▁fatale	-11.9535
▁assign	-11.9536
▁Kitty	-11.9536
▁squirm	-11.9536
▁plann	-11.9536
▁reside	-11.9537
▁Robertson	-11.9537
▁wartime	-11.9537
▁Gossett	-11.9537
▁sake	-11.9537
▁gosh	-11.9537
▁habits	-11.9538
▁resources	-11.9538
▁Scouts	-11.9538
▁Stingers	-11.9538
▁execs	-11.9538
▁selfless	-11.9538
▁yells	-11.9538
▁weep	-11.9538
▁Que	-11.9538
▁Granted	-11.9539
▁defect	-11.9539
▁Goth	-11.9539
▁attorney	-11.954
▁defy	-11.954
erling	-11.954
▁stray	-11.9541
▁supporters	-11.9542
ngelica	-11.9542
▁visitor	-11.9543
▁robbers	-11.9543
▁active	-11.9543
stash	-11.9543
▁fuss	-11.9543
▁headline	-11.9543
-80	-11.9544
▁Made	-11.9544
▁Teenage	-11.9545
▁towering	-11.9545
▁judgement	-11.9545
Magic	-11.9545
▁pretentious	-11.9546
▁greedy	-11.9546
▁Sleep	-11.9546
▁fold	-11.9546
▁Bravo	-11.9546
▁height	-11.9546
five	-11.9546
▁respectively	-11.9547
▁Half	-11.9547
▁Beller	-11.9547
Mouli	-11.9547
▁Barc	-11.9548
zing	-11.9548
▁siblings	-11.9548
▁ANY	-11.9549
Uzumaki	-11.9549
▁crushing	-11.955
▁Lieber	-11.955
thanks	-11.9551
msy	-11.9551
▁Sorry	-11.9551
▁flooded	-11.9551
▁Zen	-11.9552
▁tenor	-11.9553
▁Deal	-11.9553
raffi	-11.9554
▁darkest	-11.9554
▁July	-11.9555
string	-11.9556
▁Ebert	-11.9556
alike	-11.9557
▁measured	-11.9557
▁conscious	-11.9558
YES	-11.9558
▁cameraman	-11.9558
*&	-11.9558
▁Forever	-11.9559
▁followers	-11.9559
▁savage	-11.956
▁endlessly	-11.956
▁Lesson	-11.956
▁Flying	-11.956
▁justified	-11.956
▁enlightening	-11.9561
▁Lucy	-11.9561
stery	-11.9563
▁Old	-11.9564
▁divorced	-11.9564
▁jo	-11.9565
▁reluctantly	-11.9565
pounding	-11.9566
▁Meet	-11.9566
▁peer	-11.9567
▁eighty	-11.9569
▁Bobby	-11.9569
▁Dove	-11.957
▁amused	-11.957
▁assets	-11.9571
▁Rank	-11.9571
▁soil	-11.9572
▁NEW	-11.9572
leen	-11.9573
▁sir	-11.9573
▁stalked	-11.9574
▁mot	-11.9574
hren	-11.9575
mical	-11.9575
▁backgrounds	-11.9575
▁WAS	-11.9578
Shi	-11.9579
▁Wild	-11.9579
▁trashy	-11.958
Playboy	-11.958
▁nick	-11.9583
▁louder	-11.9584
une	-11.9585
▁reawaken	-11.9586
▁Ob	-11.9587
ail	-11.959
▁ga	-11.959
▁Five	-11.9592
gmar	-11.9592
itsy	-11.9592
▁sla	-11.9592
mperial	-11.9596
▁Elliott	-11.9597
▁Kru	-11.9597
▁Party	-11.9597
▁discussed	-11.9597
▁established	-11.9598
▁someday	-11.96
▁slacker	-11.9601
▁mesh	-11.9601
ank	-11.9601
▁abound	-11.9603
▁locales	-11.9603
▁Brits	-11.9603
laden	-11.9604
▁landmarks	-11.9604
▁skits	-11.9604
Bullet	-11.9605
▁anytime	-11.9605
▁threatening	-11.9606
amorous	-11.9606
TE	-11.9608
▁simpler	-11.9608
brow	-11.9609
▁forties	-11.9609
ogram	-11.961
▁foreigners	-11.9611
▁lake	-11.9612
Boys	-11.9613
▁placement	-11.9614
▁muppets	-11.9614
▁gasp	-11.9617
▁Gain	-11.9617
rel	-11.9618
▁slapp	-11.9618
Carlyle	-11.9621
Krist	-11.9621
▁flopp	-11.9622
▁boxer	-11.9623
enchant	-11.9624
▁Bone	-11.9625
▁dame	-11.9625
▁damned	-11.9625
▁expertly	-11.9626
▁significantly	-11.9626
▁hail	-11.9626
▁recit	-11.9627
%-	-11.9627
▁fend	-11.9627
▁Rod	-11.9628
Grade	-11.9629
▁colourful	-11.9629
▁holy	-11.963
▁Lead	-11.9631
Shame	-11.9632
oooooooooo	-11.9632
▁%	-11.9632
▁verbal	-11.9635
▁cured	-11.9635
▁fondly	-11.9636
▁Grow	-11.9637
▁grisl	-11.964
▁AN	-11.9641
erson	-11.9642
▁catchy	-11.9642
▁Turn	-11.9642
▁pat	-11.9642
▁vis	-11.9645
▁Secondly	-11.9646
anks	-11.9648
▁OR	-11.9649
rctic	-11.9649
▁Cass	-11.965
epid	-11.965
Archie	-11.9653
than	-11.9654
▁conc	-11.9659
▁regularly	-11.966
▁Marlo	-11.9664
▁Ap	-11.9666
▁nav	-11.9668
▁Hawkings	-11.9671
▁outfits	-11.9672
▁Cummings	-11.9672
▁supplies	-11.9672
▁customers	-11.9672
▁errors	-11.9672
UB	-11.9672
▁Learn	-11.9673
Shadows	-11.9673
▁hardships	-11.9673
Begotten	-11.968
▁babysitt	-11.9681
▁Fry	-11.9681
ulations	-11.9683
▁Scar	-11.9683
monsters	-11.9684
games	-11.9685
▁Tales	-11.9686
news	-11.969
▁Bach	-11.9691
national	-11.9692
▁shelve	-11.9693
▁assess	-11.9695
▁opin	-11.9695
▁tint	-11.9698
ritten	-11.9698
Th	-11.9698
▁inability	-11.9702
▁sour	-11.9703
▁Burns	-11.9704
▁nut	-11.9705
ki	-11.9705
▁temporar	-11.9706
utiful	-11.9706
▁flipp	-11.9709
▁unin	-11.971
rought	-11.9711
zed	-11.9714
▁Hersh	-11.9717
nough	-11.9718
▁sting	-11.9728
▁tested	-11.9728
ulk	-11.9733
born	-11.9734
▁coins	-11.9736
▁embe	-11.9737
▁Rings	-11.9737
▁melts	-11.9737
▁Rik	-11.974
▁illusions	-11.974
▁compositions	-11.974
▁NIGHT	-11.9742
▁En	-11.9746
▁Lin	-11.9749
▁moody	-11.9751
▁innocently	-11.9758
▁surpasse	-11.9759
▁Donal	-11.976
▁tighten	-11.9765
▁professionally	-11.9767
▁Roo	-11.9768
▁deto	-11.9768
standing	-11.9768
▁existing	-11.977
▁Oscars	-11.9772
▁closet	-11.9774
▁outer	-11.9775
▁pee	-11.9783
▁cell	-11.9784
▁morally	-11.9786
▁mannered	-11.9786
▁/>1	-11.9788
▁Tok	-11.9798
▁Head	-11.9799
▁diamonds	-11.981
▁antagonists	-11.981
▁coincidences	-11.981
▁advances	-11.9811
▁limits	-11.9811
Les	-11.9816
rystal	-11.9817
ucher	-11.9823
Angelo	-11.9825
▁awhile	-11.983
▁McG	-11.9834
▁fren	-11.9836
ghett	-11.9836
▁bones	-11.9837
▁seduc	-11.9839
▁Mus	-11.9839
ears	-11.9842
▁switche	-11.9843
lights	-11.9843
▁clas	-11.9844
lle	-11.9846
nie	-11.9849
drew	-11.985
▁2:	-11.9854
Fast	-11.9857
den	-11.9859
▁online	-11.986
▁Pascal	-11.9861
▁Cro	-11.9869
gon	-11.9872
conscious	-11.9873
▁watered	-11.9874
iko	-11.9874
▁appealed	-11.9877
▁Hands	-11.9878
▁nominations	-11.988
lic	-11.988
▁achievements	-11.988
▁variations	-11.988
cra	-11.9881
lski	-11.9882
▁sexually	-11.9883
seeing	-11.9884
AZ	-11.9885
▁gripes	-11.9885
▁riots	-11.9891
▁recruits	-11.9891
SI	-11.9891
card	-11.9897
??)	-11.9899
argue	-11.99
▁signing	-11.991
▁automa	-11.9911
quite	-11.9913
artsy	-11.9915
▁inmate	-11.9923
Thus	-11.9929
ars	-11.994
loathing	-11.9948
▁guests	-11.995
▁grabs	-11.995
▁Springs	-11.9951
▁highways	-11.9952
▁/>**	-11.9963
Thanks	-11.9964
▁posters	-11.9966
uza	-11.9967
Get	-11.9971
Re	-11.9974
▁Ami	-11.9976
DR	-11.9978
Additional	-11.9978
ERE	-11.9981
ertainly	-11.9985
▁rocked	-11.9986
▁196	-11.9999
▁talkies	-12
eg	-12.0005
▁Sor	-12.0006
ran	-12.0009
▁puns	-12.0009
▁Seed	-12.0014
▁Lear	-12.0014
▁storms	-12.0021
▁balloons	-12.0021
▁criticisms	-12.0021
▁rod	-12.0025
heads	-12.0028
▁sl	-12.0033
▁spit	-12.0033
▁texture	-12.0037
▁Imagin	-12.004
▁adulter	-12.005
▁Toy	-12.0056
▁prob	-12.0057
umb	-12.0058
▁Tre	-12.0065
▁launch	-12.0067
credit	-12.0069
dish	-12.0076
OH	-12.0079
▁committ	-12.0087
ni	-12.0089
▁rivals	-12.0093
▁principals	-12.0093
orough	-12.0095
▁possesse	-12.0097
urning	-12.0103
▁enrich	-12.0104
▁wok	-12.0104
▁buffs	-12.0105
▁(194	-12.0107
owa	-12.0108
lienation	-12.011
az	-12.0113
drawn	-12.0121
each	-12.0123
▁Corps	-12.0123
▁strangely	-12.0124
▁outdo	-12.0129
▁cons	-12.0129
▁ya	-12.0138
▁convers	-12.0139
▁Fur	-12.0141
hire	-12.0145
▁Needle	-12.0152
incomprehensible	-12.0155
▁gam	-12.0158
▁Matthews	-12.0165
▁phrases	-12.0165
ben	-12.0167
▁tasteful	-12.0171
▁mins	-12.0175
▁rotat	-12.0176
RY	-12.0178
▁Tous	-12.0185
▁Tu	-12.0185
▁Sm	-12.0186
▁cha	-12.0186
91	-12.0188
rze	-12.0193
▁Nations	-12.0199
▁Ren	-12.0201
▁overlook	-12.0202
riest	-12.0216
▁Starr	-12.0216
rice	-12.023
lar	-12.0233
▁plead	-12.0235
▁wash	-12.0235
▁detracts	-12.0237
▁connections	-12.0238
OES	-12.024
ams	-12.0245
TEN	-12.0247
▁Sas	-12.0257
▁Mu	-12.0262
▁clima	-12.0264
▁ped	-12.0265
▁Fly	-12.0286
▁robbe	-12.029
▁stall	-12.0294
RIS	-12.0294
▁approache	-12.0301
ying	-12.031
▁Soviets	-12.0311
fa	-12.0315
▁presenting	-12.032
▁dances	-12.0325
ddles	-12.0326
rying	-12.033
liness	-12.0333
ager	-12.0339
▁(!)	-12.0358
uel	-12.036
gone	-12.0377
.1	-12.0379
bug	-12.0379
▁Shar	-12.0384
ja	-12.0387
ders	-12.039
▁Jul	-12.0393
▁Pope	-12.0396
nker	-12.04
▁lightly	-12.0415
▁SNE	-12.0416
iana	-12.0418
▁conjure	-12.042
▁package	-12.042
▁compensate	-12.043
▁mate	-12.043
5,	-12.044
▁Contr	-12.0445
ich	-12.0449
FFI	-12.045
▁enabl	-12.0456
▁puzzles	-12.0456
▁robots	-12.0459
▁papers	-12.046
▁Ry	-12.0464
▁fe	-12.0465
▁scar	-12.0468
▁wrongly	-12.047
ppy	-12.0482
tress	-12.0493
▁Edg	-12.0507
▁Awards	-12.0524
▁pros	-12.0525
▁fields	-12.0533
▁occurs	-12.0534
flinching	-12.0536
▁cos	-12.0539
rises	-12.054
nny	-12.054
▁Cur	-12.0543
▁Ty	-12.0567
▁Hans	-12.0574
uber	-12.0578
11	-12.0582
▁shell	-12.0584
sad	-12.0591
eck	-12.0603
▁Tru	-12.0605
ffre	-12.0609
▁Cran	-12.0609
iversity	-12.0612
▁Victoria	-12.0612
dle	-12.0613
▁Kris	-12.0616
era	-12.0619
▁Eur	-12.0619
)?	-12.062
lair	-12.0632
▁compil	-12.0635
▁cart	-12.0641
......	-12.0655
▁trauma	-12.0658
mble	-12.066
▁Ros	-12.0664
evenge	-12.0685
▁Geo	-12.0685
▁festivals	-12.0686
▁Eli	-12.0714
▁guid	-12.0722
som	-12.0726
▁bounds	-12.0732
posed	-12.0733
▁legitimate	-12.0736
rass	-12.0742
▁relatives	-12.0756
Thre	-12.076
▁increase	-12.0779
aries	-12.0781
▁freeze	-12.0783
llow	-12.0784
▁ka	-12.0798
ogan	-12.0799
attleship	-12.08
▁Terri	-12.0811
din	-12.082
▁seam	-12.0823
▁Lie	-12.0825
▁Ji	-12.0833
▁sor	-12.0837
▁agents	-12.0839
illian	-12.0844
east	-12.0846
▁Nava	-12.0852
▁bid	-12.0852
▁shocks	-12.0852
goodbye	-12.0858
▁carn	-12.0866
▁slipp	-12.0868
interrupted	-12.0895
▁underplay	-12.0907
▁tests	-12.0912
▁systems	-12.0917
▁missions	-12.0922
tors	-12.0924
thor	-12.0926
note	-12.0927
strange	-12.0929
Or	-12.093
▁FF	-12.0934
▁bli	-12.0935
years	-12.0937
eur	-12.0937
▁towns	-12.0938
▁lock	-12.0945
▁smith	-12.0962
▁elevat	-12.097
idan	-12.097
erman	-12.0972
ko	-12.0975
▁Gott	-12.0979
▁Mul	-12.1004
▁linger	-12.1005
▁inf	-12.102
Un	-12.1023
ttle	-12.1028
▁Others	-12.103
▁kit	-12.1034
FER	-12.1038
ero	-12.1041
▁inexperience	-12.1041
Izzie	-12.1043
ervy	-12.1049
▁Ep	-12.1052
▁cared	-12.1054
▁crippl	-12.1061
▁Ju	-12.1066
▁epics	-12.1073
▁forest	-12.1082
▁Ah	-12.1084
alism	-12.109
aunch	-12.1095
▁Cliff	-12.1096
▁Camer	-12.1098
bil	-12.1117
▁Tin	-12.1121
▁th	-12.1125
olm	-12.1127
WO	-12.113
▁Bla	-12.1136
▁rum	-12.1137
av	-12.1148
▁rip	-12.1149
▁heading	-12.1156
ND	-12.1157
fl	-12.117
▁Ring	-12.117
ium	-12.118
sity	-12.1186
▁Minn	-12.1188
fei	-12.1195
ye	-12.1196
▁Su	-12.1201
▁Mari	-12.1202
▁graduate	-12.1203
"(	-12.1209
▁Burn	-12.1212
▁gu	-12.1224
▁lac	-12.1233
unch	-12.1235
▁che	-12.1236
▁Mil	-12.1242
THING	-12.1247
TA	-12.125
ige	-12.1252
▁Pres	-12.1255
▁unpredictabl	-12.1267
writers	-12.127
state	-12.1284
woman	-12.1292
▁Pleas	-12.1307
▁Key	-12.1319
tered	-12.1331
▁preced	-12.1339
▁rippe	-12.1339
▁goon	-12.1339
cour	-12.1341
▁costs	-12.1358
▁beard	-12.1359
▁immers	-12.1366
ag	-12.1368
roo	-12.1369
rating	-12.1371
▁Nat	-12.1372
▁Chee	-12.1373
▁Wi	-12.1376
▁Guys	-12.1396
▁combinations	-12.1397
▁remakes	-12.1401
▁fem	-12.1419
▁revers	-12.1433
ison	-12.1436
More	-12.1439
sso	-12.1439
▁cruelt	-12.1443
jected	-12.1447
ivity	-12.1465
▁Ham	-12.1471
▁priests	-12.1479
▁impressions	-12.1479
car	-12.1483
▁plast	-12.1484
bor	-12.1494
rite	-12.1507
OUS	-12.1508
jects	-12.1511
Crane	-12.152
worldly	-12.1553
?...	-12.1573
used	-12.1579
net	-12.158
▁Com	-12.1588
▁Cyberm	-12.1599
▁unt	-12.16
AS	-12.1624
tial	-12.1624
▁COP	-12.1638
▁Po	-12.1642
▁clubs	-12.1645
▁sal	-12.1651
▁orchestrat	-12.1654
▁port	-12.1661
▁spirits	-12.1665
zu	-12.1672
eek	-12.1672
cu	-12.1674
▁Leg	-12.1674
atic	-12.168
▁pains	-12.1682
▁enable	-12.1683
▁sensational	-12.1694
ern	-12.1696
▁Fra	-12.1708
▁figur	-12.171
▁strut	-12.1717
▁Kr	-12.1719
▁stores	-12.1732
▁Tat	-12.1733
ndler	-12.174
shy	-12.1748
inning	-12.1748
▁daughters	-12.176
anna	-12.1766
ude	-12.1768
▁Er	-12.177
ös	-12.1778
▁Ay	-12.1783
▁rev	-12.1786
▁exc	-12.1799
▁appli	-12.1799
▁aut	-12.1808
▁cro	-12.1818
▁passions	-12.1821
▁Apple	-12.1834
haired	-12.1855
▁climat	-12.1858
ita	-12.1874
▁crush	-12.1876
lated	-12.1878
▁swa	-12.1888
gel	-12.1896
lance	-12.19
jection	-12.1911
jk	-12.1912
▁Marcel	-12.1918
▁mates	-12.1932
▁operate	-12.1933
cid	-12.1941
ani	-12.1946
ump	-12.1951
▁withdraw	-12.1961
▁Isa	-12.1966
Firstly	-12.1973
jo	-12.1983
▁pose	-12.199
cut	-12.1991
▁mous	-12.2009
ull	-12.2011
keeper	-12.202
OUR	-12.2023
▁Corp	-12.2028
eel	-12.2036
▁Vi	-12.2036
rise	-12.2043
▁relieve	-12.2046
ked	-12.2053
ru	-12.2057
▁animat	-12.2066
▁Kings	-12.2066
ans	-12.2068
gged	-12.2077
ulation	-12.2085
▁Kee	-12.2091
▁Rei	-12.2103
▁Dea	-12.2112
▁boundar	-12.2121
▁gre	-12.2128
▁Camill	-12.2146
dded	-12.2146
▁teams	-12.2148
▁directions	-12.2154
Ch	-12.2155
yer	-12.2171
▁Hick	-12.2172
▁heal	-12.218
part	-12.2207
▁orient	-12.2207
ber	-12.2213
▁10)	-12.2217
▁excellently	-12.2223
▁Rin	-12.2223
OR	-12.2238
ronic	-12.2263
▁document	-12.2263
ano	-12.2268
▁remark	-12.227
curs	-12.2271
▁stare	-12.2272
▁Lar	-12.2277
▁duck	-12.2278
orman	-12.2282
▁Bela	-12.2283
▁admitt	-12.2287
pressed	-12.2289
feel	-12.2294
alien	-12.2299
▁believ	-12.2303
▁Whit	-12.2307
ences	-12.231
stical	-12.2312
Oz	-12.2316
Ah	-12.2318
ctua	-12.2319
▁slap	-12.2319
▁colonial	-12.2324
▁Qui	-12.2325
67	-12.2326
ggles	-12.2335
▁rot	-12.2336
▁Ur	-12.234
▁Dia	-12.2346
ayne	-12.2348
▁Fata	-12.2352
▁ki	-12.2357
▁1936	-12.2364
▁Ing	-12.2367
Virgini	-12.2377
▁10,	-12.238
...........	-12.2384
par	-12.2385
short	-12.2386
▁55	-12.2393
▁houses	-12.2395
lite	-12.2404
arity	-12.2407
lude	-12.2409
happy	-12.2413
ENT	-12.2414
TCH	-12.2418
wall	-12.2419
nif	-12.2421
die	-12.2423
▁appreciat	-12.2425
mother	-12.2428
▁stirr	-12.2428
oe	-12.243
arren	-12.2447
▁Jov	-12.245
elon	-12.2468
lect	-12.2472
Chev	-12.2474
gue	-12.2479
▁theory	-12.2489
▁reward	-12.2496
namely	-12.25
culture	-12.2506
effect	-12.2507
cross	-12.2512
usty	-12.2513
▁tragical	-12.2514
80	-12.2514
AL	-12.2515
▁ye	-12.2521
Other	-12.2522
predictably	-12.2527
▁raid	-12.2527
ipped	-12.2527
closure	-12.2529
▁tower	-12.2531
Adam	-12.2532
99	-12.2535
Mar	-12.2536
▁protecti	-12.2537
hr	-12.2541
▁exploit	-12.2547
filled	-12.2547
irplane	-12.2549
▁intro	-12.2551
core	-12.2554
apped	-12.2555
temporary	-12.2556
▁monk	-12.2562
▁Fingersmith	-12.2562
▁dessert	-12.2562
▁spectator	-12.2562
▁globe	-12.2562
▁conclude	-12.2562
▁session	-12.2562
mission	-12.2563
▁resonate	-12.2564
▁kiddie	-12.2564
▁frat	-12.2565
▁chicken	-12.2572
▁nerd	-12.2572
DER	-12.2572
▁PE	-12.2574
▁spectacle	-12.2577
lf	-12.2577
▁rack	-12.2578
▁Ele	-12.2586
ok	-12.2586
▁proceed	-12.2587
▁skirt	-12.2588
▁gimmick	-12.2588
▁pajama	-12.2588
▁patron	-12.2588
▁1000	-12.2588
▁feat	-12.2589
▁mobster	-12.2589
▁civilization	-12.2589
▁protest	-12.2589
▁contribution	-12.2591
▁snake	-12.2592
▁Crew	-12.2593
▁Marc	-12.2598
▁supplie	-12.26
▁Cumming	-12.26
▁outfit	-12.2601
▁customer	-12.2602
Boy	-12.2603
▁error	-12.2604
ila	-12.2604
▁Step	-12.2604
asian	-12.2605
▁occasion	-12.2605
▁Includ	-12.2607
▁commentator	-12.2608
▁corpse	-12.2609
ominated	-12.261
▁counterpart	-12.261
▁whim	-12.261
▁hardship	-12.2612
bble	-12.2612
▁Studio	-12.2613
▁subplot	-12.2614
▁Hill	-12.2615
▁Hercule	-12.2615
take	-12.2616
INE	-12.2617
▁circumstance	-12.262
asting	-12.2622
▁Hour	-12.2622
▁(1	-12.2624
▁Tale	-12.2628
Note	-12.2631
▁Bug	-12.2632
Hiro	-12.2633
▁Soul	-12.2634
▁na	-12.2634
aseball	-12.2639
ations	-12.264
▁Doll	-12.2642
racing	-12.2647
▁filler	-12.2658
ear	-12.2663
▁SE	-12.2663
atha	-12.2665
NG	-12.2666
▁ensu	-12.2667
▁dramatize	-12.2668
▁expectation	-12.2673
▁needles	-12.2678
friend	-12.2678
▁homes	-12.2678
ANY	-12.2681
▁decid	-12.2686
form	-12.2689
Liv	-12.2692
speak	-12.2693
post	-12.2694
grading	-12.2694
rrid	-12.2695
Jane	-12.2696
ltz	-12.2699
▁lights	-12.2702
▁centre	-12.2704
▁Connor	-12.2706
▁Ash	-12.2709
level	-12.2712
▁Schi	-12.2713
","	-12.2716
▁Stars	-12.2719
ik	-12.2721
gio	-12.2721
▁relat	-12.2722
physical	-12.2723
talking	-12.2723
Stock	-12.2724
ctic	-12.2725
▁bro	-12.2726
complete	-12.2726
Flori	-12.2728
▁Hawking	-12.2729
▁domin	-12.2729
▁refuge	-12.2732
▁exceed	-12.2733
lee	-12.2734
▁300	-12.2734
dmira	-12.2735
valu	-12.2737
sanity	-12.2738
▁scor	-12.2744
▁gli	-12.2744
Ca	-12.2747
▁mothers	-12.275
▁temp	-12.2753
▁chop	-12.2753
Su	-12.2754
▁imagin	-12.2754
fair	-12.2755
Wild	-12.2755
llery	-12.2756
confiden	-12.2756
▁immigra	-12.2756
lugg	-12.2757
▁matin	-12.2759
Prosper	-12.276
comparable	-12.276
existent	-12.276
▁liner	-12.2762
Bill	-12.2762
▁lurk	-12.2765
▁RE	-12.2765
NU	-12.2765
versa	-12.2765
earth	-12.2766
Johanna	-12.2767
apocalyptic	-12.2767
Joanne	-12.2767
CIA	-12.2767
Eu	-12.2768
wannabe	-12.2768
Bravo	-12.277
Sleep	-12.277
Que	-12.277
Half	-12.277
NEW	-12.277
pretentious	-12.2771
▁poison	-12.2771
Rex	-12.2771
Meet	-12.2771
Lesson	-12.2771
Mani	-12.2772
BTW	-12.2772
species	-12.2772
capital	-12.2772
text	-12.2772
tale	-12.2772
thunder	-12.2772
eating	-12.2772
▁bind	-12.2772
Head	-12.2772
protecti	-12.2772
Sorry	-12.2773
throw	-12.2773
lements	-12.2773
▁(195	-12.2773
Obviously	-12.2773
Motorama	-12.2773
Godfather	-12.2773
Maria	-12.2774
seen	-12.2774
Andrew	-12.2774
WAY	-12.2774
Dario	-12.2774
Jamie	-12.2774
Sweeney	-12.2774
choreographed	-12.2774
Nightbreed	-12.2774
product	-12.2774
smoking	-12.2774
water	-12.2774
easy	-12.2774
funny	-12.2775
Throughout	-12.2775
Apparently	-12.2775
destruction	-12.2775
floor	-12.2775
Definitely	-12.2775
Rachel	-12.2775
Rainbow	-12.2775
Gerald	-12.2775
Recommended	-12.2775
Eva	-12.2775
Monster	-12.2776
Movies	-12.2776
Please	-12.2776
health	-12.2776
sentimental	-12.2776
Jackass	-12.2776
bath	-12.2776
▁bod	-12.2776
Victor	-12.2776
pilot	-12.2776
Columbo	-12.2776
Wow	-12.2776
Nick	-12.2776
Eisenstein	-12.2776
candy	-12.2776
Okay	-12.2776
Joseph	-12.2776
Quinn	-12.2777
system	-12.2777
Sinatra	-12.2777
punk	-12.2777
appreciated	-12.2777
Susan	-12.2777
mentioned	-12.2777
Jim	-12.2777
colour	-12.2777
Matthau	-12.2777
Perhaps	-12.2777
sensitive	-12.2777
Lord	-12.2777
Jason	-12.2777
Lot	-12.2777
Danny	-12.2777
Madonna	-12.2777
Boris	-12.2777
Smith	-12.2777
Full	-12.2777
sweet	-12.2777
yeah	-12.2777
Keaton	-12.2777
century	-12.2777
food	-12.2777
forward	-12.2777
drug	-12.2777
House	-12.2777
innocent	-12.2777
judge	-12.2778
jump	-12.2778
talented	-12.2778
▁overwhelm	-12.2778
poor	-12.2778
particularly	-12.2778
perhaps	-12.2778
Julie	-12.2778
documentary	-12.2778
common	-12.2778
typical	-12.2778
English	-12.2778
British	-12.2778
plenty	-12.2778
heroin	-12.2778
first	-12.2778
before	-12.2778
found	-12.2778
inspired	-12.2778
Dean	-12.2778
Harry	-12.2778
week	-12.2778
Max	-12.2778
plus	-12.2779
space	-12.2779
German	-12.2779
▁qui	-12.2779
Jones	-12.2779
Saw	-12.2779
job	-12.2779
double	-12.2779
past	-12.2779
decent	-12.278
▁astonish	-12.278
▁choreograph	-12.278
affect	-12.278
million	-12.278
Mike	-12.278
person	-12.278
trail	-12.278
four	-12.278
romance	-12.278
background	-12.2781
Jay	-12.2781
genre	-12.2781
nothing	-12.2781
▁Scot	-12.2781
crazy	-12.2781
however	-12.2782
Scott	-12.2782
pretty	-12.2782
unlike	-12.2783
▁Gosset	-12.2783
since	-12.2783
Heath	-12.2783
related	-12.2783
SPOILERS	-12.2784
Film	-12.2784
Day	-12.2784
Chan	-12.2786
▁restrain	-12.2786
▁Roma	-12.2787
fell	-12.2787
▁independen	-12.2787
rapped	-12.2788
Time	-12.2788
matter	-12.279
native	-12.2792
opening	-12.2792
scious	-12.2793
Age	-12.2793
▁rude	-12.2794
Sure	-12.2795
▁AM	-12.2795
scribe	-12.2795
▁spun	-12.2795
Billy	-12.2796
avier	-12.2796
▁Grant	-12.2797
Hell	-12.2798
ij	-12.2798
▁trivia	-12.2798
▁troubles	-12.2798
▁exclusive	-12.2799
tolerance	-12.2799
izz	-12.2799
▁extract	-12.28
ulet	-12.2802
Lion	-12.2803
mix	-12.2804
▁Holo	-12.2804
▁Say	-12.2805
Have	-12.2805
▁clu	-12.2806
▁advertise	-12.2806
▁patter	-12.2807
lost	-12.2809
▁underestimate	-12.2809
Whistl	-12.2809
grown	-12.2811
▁oblivio	-12.2811
▁mount	-12.2811
▁skate	-12.2814
▁mild	-12.2814
shown	-12.2814
▁typ	-12.2815
row	-12.2816
▁Norma	-12.2817
▁loop	-12.2817
lord	-12.2818
▁biograph	-12.2818
agnificent	-12.2818
does	-12.2818
Luck	-12.2818
▁Want	-12.2818
▁anticipate	-12.2818
Part	-12.2819
▁visibl	-12.2819
▁revive	-12.2819
hey	-12.282
▁dwell	-12.282
venue	-12.282
▁frighten	-12.282
▁unforgettabl	-12.282
▁impossibl	-12.282
▁futur	-12.2821
▁Scor	-12.2822
▁Mani	-12.2822
▁publishe	-12.2823
sigh	-12.2823
▁announce	-12.2823
▁mor	-12.2823
▁phenomen	-12.2824
MA	-12.2825
▁stink	-12.2825
▁esp	-12.2825
▁pig	-12.2826
▁impersonat	-12.2826
Act	-12.2826
▁Horn	-12.2827
▁glitch	-12.2827
idden	-12.2827
▁bike	-12.2827
fact	-12.2828
▁pap	-12.2828
▁occup	-12.2828
▁percepti	-12.2829
titles	-12.2829
▁ethic	-12.2829
▁spec	-12.283
▁recollect	-12.283
▁bless	-12.283
gay	-12.283
▁racis	-12.283
Land	-12.2831
trospective	-12.2831
▁familia	-12.2831
ollins	-12.2831
▁fruit	-12.2831
erfect	-12.2831
▁Tur	-12.2831
▁profess	-12.2832
▁deprav	-12.2832
henomena	-12.2832
▁cinematograph	-12.2832
▁devi	-12.2832
itizen	-12.2832
atively	-12.2832
cision	-12.2832
mail	-12.2832
successful	-12.2832
uzz	-12.2832
▁Rub	-12.2832
▁prospect	-12.2832
elebrate	-12.2833
▁advent	-12.2833
▁psycho	-12.2833
sacred	-12.2833
▁Stockh	-12.2833
▁asses	-12.2833
▁exhibit	-12.2833
olla	-12.2833
averick	-12.2833
rches	-12.2833
suade	-12.2833
▁Cros	-12.2833
▁favour	-12.2833
prehensi	-12.2833
NNY	-12.2833
umentary	-12.2833
ACT	-12.2833
▁incarcerat	-12.2833
▁Dostoyevsk	-12.2833
▁contaminat	-12.2833
Hospital	-12.2833
Lubitsch	-12.2833
Revelation	-12.2833
Slausen	-12.2833
Spielberg	-12.2833
Stripperella	-12.2833
avalcade	-12.2833
blooded	-12.2833
enberry	-12.2833
grove	-12.2833
iblical	-12.2833
junction	-12.2833
mercifully	-12.2833
onsequently	-12.2833
onymous	-12.2833
rainspotting	-12.2833
uncharacteristic	-12.2833
urricane	-12.2833
ä	-12.2833
ü	-12.2833
–	-12.2833
▁1942	-12.2833
▁1949	-12.2833
▁1973	-12.2833
▁1992	-12.2833
▁9/11	-12.2833
▁Agutter	-12.2833
▁Animatrix	-12.2833
▁Aschenbach	-12.2833
▁Astaire	-12.2833
▁BEYOND	-12.2833
▁BLADERUNNER	-12.2833
▁Bazzoni	-12.2833
▁Belarus	-12.2833
▁Bigazzi	-12.2833
▁Binoche	-12.2833
▁Birthday	-12.2833
▁Bohringer	-12.2833
▁CHEEK	-12.2833
▁Castellitto	-12.2833
▁Cochran	-12.2833
▁Compton	-12.2833
▁Cortez	-12.2833
▁Crackerjack	-12.2833
▁Denmark	-12.2833
▁Dolomite	-12.2833
▁Dwarf	-12.2833
▁EXCELLENT	-12.2833
▁Entertainment	-12.2833
▁FREE	-12.2833
▁Fernack	-12.2833
▁Flatley	-12.2833
▁Flitter	-12.2833
▁GWTW	-12.2833
▁GYP	-12.2833
▁GZSZ	-12.2833
▁Giacomo	-12.2833
▁Gleason	-12.2833
▁Gomez	-12.2833
▁Gostyukhin	-12.2833
▁Gutierrez	-12.2833
▁HILARIOUS	-12.2833
▁Holloway	-12.2833
▁Horizon	-12.2833
▁Hutz	-12.2833
▁IMHO	-12.2833
▁Itsuki	-12.2833
▁LaBeouf	-12.2833
▁Ledoyen	-12.2833
▁Lehman	-12.2833
▁Lincoln	-12.2833
▁Magimel	-12.2833
▁Malibu	-12.2833
▁Marquis	-12.2833
▁Mayweather	-12.2833
▁Milverstead	-12.2833
▁Monroe	-12.2833
▁Navarra	-12.2833
▁Nilsson	-12.2833
▁Nomination	-12.2833
▁OPERA	-12.2833
▁Patterson	-12.2833
▁Pegasus	-12.2833
▁Pelswick	-12.2833
▁Pembroke	-12.2833
▁Pennsylvania	-12.2833
▁Perlman	-12.2833
▁Pfieffer	-12.2833
▁Prejean	-12.2833
▁Python	-12.2833
▁Record	-12.2833
▁Redgrave	-12.2833
▁Rififi	-12.2833
▁Rodanthe	-12.2833
▁Rutherford	-12.2833
▁Samantha	-12.2833
▁Samojlova	-12.2833
▁Schreiber	-12.2833
▁Scorsese	-12.2833
▁Sikkim	-12.2833
▁Soleil	-12.2833
▁Stapleton	-12.2833
▁Switzerland	-12.2833
▁Terzieff	-12.2833
▁Timberlake	-12.2833
▁Tsuburaya	-12.2833
▁Tweety	-12.2833
▁Washington	-12.2833
▁Wilhelm	-12.2833
▁Wrong	-12.2833
▁Zellweger	-12.2833
▁aardvark	-12.2833
▁antithesis	-12.2833
▁appetite	-12.2833
▁arrogance	-12.2833
▁assumption	-12.2833
▁balcony	-12.2833
▁banquet	-12.2833
▁beguiling	-12.2833
▁bikinis	-12.2833
▁caravan	-12.2833
▁chagrin	-12.2833
▁clarinet	-12.2833
▁coarse	-12.2833
▁collaboration	-12.2833
▁connoisseur	-12.2833
▁consistency	-12.2833
▁contemporaries	-12.2833
▁contradict	-12.2833
▁criteria	-12.2833
▁desolation	-12.2833
▁disembo	-12.2833
▁disjointed	-12.2833
▁download	-12.2833
▁dynamite	-12.2833
▁eavesdropp	-12.2833
▁eclipse	-12.2833
▁emergency	-12.2833
▁escaping	-12.2833
▁exemplary	-12.2833
▁exhaust	-12.2833
▁experiencing	-12.2833
▁flavour	-12.2833
▁flourish	-12.2833
▁framing	-12.2833
▁fundamental	-12.2833
▁histrionic	-12.2833
▁hoodlum	-12.2833
▁hybrid	-12.2833
▁identities	-12.2833
▁immaculate	-12.2833
▁improbable	-12.2833
▁inclination	-12.2833
▁inexplicabl	-12.2833
▁inflict	-12.2833
▁irrational	-12.2833
▁juxtapose	-12.2833
▁juxtaposition	-12.2833
▁letterboxed	-12.2833
▁majest	-12.2833
▁mascot	-12.2833
▁maudlin	-12.2833
▁mechanic	-12.2833
▁mexican	-12.2833
▁obstacle	-12.2833
▁orgasm	-12.2833
▁ostensibl	-12.2833
▁overzealous	-12.2833
▁pacifist	-12.2833
▁paedophil	-12.2833
▁pearl	-12.2833
▁peddler	-12.2833
▁pencil	-12.2833
▁perplexed	-12.2833
▁philosopher	-12.2833
▁plagiarism	-12.2833
▁pompous	-12.2833
▁preposterous	-12.2833
▁prolific	-12.2833
▁queue	-12.2833
▁reappear	-12.2833
▁recognise	-12.2833
▁recycle	-12.2833
▁reflex	-12.2833
▁rehash	-12.2833
▁repetitive	-12.2833
▁resolute	-12.2833
▁rhyme	-12.2833
▁rifle	-12.2833
▁sardonic	-12.2833
▁scissors	-12.2833
▁sermon	-12.2833
▁seymour	-12.2833
▁snippet	-12.2833
▁squeeze	-12.2833
▁stadium	-12.2833
▁stitched	-12.2833
▁substantial	-12.2833
▁superlative	-12.2833
▁supermarket	-12.2833
▁synthesizer	-12.2833
▁séance	-12.2833
▁tangible	-12.2833
▁technician	-12.2833
▁technicolor	-12.2833
▁testimony	-12.2833
▁treacherous	-12.2833
▁trifle	-12.2833
▁unconvincing	-12.2833
▁unprecedented	-12.2833
▁unrelenting	-12.2833
▁unthinkable	-12.2833
▁vigilante	-12.2833
▁virtue	-12.2833
▁vivacious	-12.2833
▁volunteer	-12.2833
▁Alabama	-12.2833
▁Belgian	-12.2833
▁Bounty	-12.2833
▁Cartoon	-12.2833
▁Championship	-12.2833
▁Dutchess	-12.2833
▁Flagstaff	-12.2833
▁Gandhi	-12.2833
▁Harriet	-12.2833
▁Keanu	-12.2833
▁Kleenex	-12.2833
▁Knowledge	-12.2833
▁Marigold	-12.2833
▁Museum	-12.2833
▁Source	-12.2833
▁Strelzyk	-12.2833
▁accelerat	-12.2833
▁activist	-12.2833
▁amputee	-12.2833
▁bachelor	-12.2833
▁bankrupt	-12.2833
▁bewilder	-12.2833
▁brevity	-12.2833
▁condescend	-12.2833
▁conquest	-12.2833
▁deaf	-12.2833
▁deficiencies	-12.2833
▁disgruntled	-12.2833
▁hypnoti	-12.2833
▁indifference	-12.2833
▁molasses	-12.2833
▁peripheral	-12.2833
▁powder	-12.2833
▁sleaze	-12.2833
▁troupe	-12.2833
▁tunnel	-12.2833
▁voyeur	-12.2833
▁whisper	-12.2833
hyeon	-12.2833
omaniac	-12.2833
ourgeo	-12.2833
sprezz	-12.2833
▁Broadcast	-12.2833
▁Chabrol	-12.2833
▁Combat	-12.2833
▁Crabbe	-12.2833
▁Dalton	-12.2833
▁Hyper	-12.2833
▁Islam	-12.2833
▁Liapis	-12.2833
▁Metropolis	-12.2833
▁Pskov	-12.2833
▁ROCKNE	-12.2833
▁Tromeo	-12.2833
▁Ultra	-12.2833
▁Vanessa	-12.2833
▁acquaintance	-12.2833
▁cease	-12.2833
▁commendable	-12.2833
▁intruding	-12.2833
▁mediocrit	-12.2833
▁philander	-12.2833
▁sheriff	-12.2833
▁sleeve	-12.2833
▁snooty	-12.2833
▁throbbing	-12.2833
▁totalitarian	-12.2833
Hoppity	-12.2833
▁1951	-12.2833
▁Basilica	-12.2833
▁Bisset	-12.2833
▁Dillane	-12.2833
▁Muniz	-12.2833
▁Particular	-12.2833
▁Tagore	-12.2833
▁Talbot	-12.2833
▁denial	-12.2833
▁prologue	-12.2833
▁unsatisfying	-12.2833
Escap	-12.2833
clectic	-12.2833
▁Beckersted	-12.2833
▁Byrne	-12.2833
▁Circle	-12.2833
▁Kinnear	-12.2833
▁Pamela	-12.2833
▁SUPER	-12.2833
▁Schultz	-12.2833
▁TRAMP	-12.2833
▁Tramp	-12.2833
▁augment	-12.2833
▁autopsy	-12.2833
▁cleric	-12.2833
▁component	-12.2833
▁continent	-12.2833
▁heiress	-12.2833
▁mistreat	-12.2833
▁ninja	-12.2833
▁nonchalan	-12.2833
▁psychologist	-12.2833
▁psychology	-12.2833
▁tweak	-12.2833
▁utilize	-12.2833
▁vistas	-12.2833
Mitthi	-12.2833
ø	-12.2833
▁Aamir	-12.2833
▁Fleming	-12.2833
▁Greenaway	-12.2833
▁Teacher	-12.2833
▁flea	-12.2833
▁gusto	-12.2833
▁Diehl	-12.2833
▁duplicate	-12.2833
▁jolt	-12.2833
▁pancake	-12.2833
▁skulls	-12.2833
▁townsfolk	-12.2833
Speak	-12.2834
▁exemplifie	-12.2834
entment	-12.2834
▁Brewer	-12.2834
▁Quaid	-12.2834
▁Shreck	-12.2834
▁arrow	-12.2834
▁article	-12.2834
▁bloodshed	-12.2834
▁cornball	-12.2834
▁curtain	-12.2834
▁replies	-12.2834
▁robocop	-12.2834
701	-12.2834
discriminat	-12.2834
▁Kinski	-12.2834
▁Watkins	-12.2834
▁entries	-12.2834
▁languid	-12.2834
▁weasel	-12.2834
▁Dynami	-12.2834
▁Limit	-12.2834
▁Merimeé	-12.2834
▁Ratman	-12.2834
▁Robbins	-12.2834
▁clubbing	-12.2834
▁puberty	-12.2834
▁tuning	-12.2834
▁Himself	-12.2834
▁Kansas	-12.2834
▁McGuinness	-12.2834
▁Melody	-12.2834
▁Randall	-12.2834
▁scholarship	-12.2834
▁Afghan	-12.2834
▁Troche	-12.2834
▁landowner	-12.2834
▁persever	-12.2834
▁robbing	-12.2834
▁sloppy	-12.2834
▁transpire	-12.2834
▁Cusick	-12.2834
▁Senator	-12.2834
▁Valletta	-12.2834
vangelical	-12.2834
▁Bavaria	-12.2834
▁Eilers	-12.2834
▁Raisul	-12.2834
▁Tunne	-12.2834
▁compromise	-12.2834
▁macabre	-12.2834
▁reruns	-12.2834
▁uncontrollabl	-12.2834
Refreshing	-12.2834
▁Bava	-12.2834
▁Jasper	-12.2834
▁Adrienne	-12.2834
▁cannibalism	-12.2834
▁discomfort	-12.2834
▁permeat	-12.2834
▁sunglasses	-12.2834
▁Decline	-12.2834
▁nagging	-12.2834
▁Flashdance	-12.2834
▁crazi	-12.2834
▁disclose	-12.2834
▁comprehensi	-12.2834
▁doozy	-12.2834
▁envy	-12.2834
▁wreak	-12.2834
▁Culp	-12.2834
▁Milano	-12.2834
▁diction	-12.2834
▁Gundam	-12.2834
▁Irvin	-12.2834
▁Phillipines	-12.2834
▁fellatio	-12.2834
▁salute	-12.2834
▁Horsemen	-12.2834
▁Nevada	-12.2834
▁grouch	-12.2834
▁Beatles	-12.2834
▁Underworld	-12.2834
▁Circu	-12.2834
▁Fraser	-12.2834
▁Juhi	-12.2834
▁Kathrine	-12.2834
▁Sixties	-12.2834
▁babies	-12.2834
▁blindfolded	-12.2834
▁robust	-12.2834
▁yesterday	-12.2834
ersuasi	-12.2834
▁Damned	-12.2834
▁Hackford	-12.2834
▁delectabl	-12.2834
▁shudder	-12.2834
▁autistic	-12.2834
▁cutaway	-12.2834
▁perversion	-12.2834
▁Fingers	-12.2834
▁Malmar	-12.2834
▁Sorkin	-12.2834
▁retold	-12.2834
▁banter	-12.2834
▁niche	-12.2834
▁Corelli	-12.2834
▁Northwest	-12.2834
▁Serva	-12.2834
▁dense	-12.2834
▁cherish	-12.2834
▁exclaim	-12.2834
▁misdirect	-12.2834
▁SGT	-12.2834
▁alarm	-12.2834
▁chamber	-12.2834
▁miracle	-12.2834
▁BASE	-12.2834
▁Vetra	-12.2834
▁Margera	-12.2834
▁Saint	-12.2834
▁Halmi	-12.2834
▁Waltz	-12.2834
▁suffice	-12.2834
▁vigorous	-12.2834
Flo	-12.2834
▁Childhood	-12.2834
▁Fiennes	-12.2834
▁dedicate	-12.2834
▁pornography	-12.2834
▁turkey	-12.2834
▁stork	-12.2834
▁Karloff	-12.2834
▁Window	-12.2834
Antoni	-12.2834
2@	-12.2834
▁Claudine	-12.2834
▁7.5/10	-12.2834
▁Germs	-12.2834
▁centuries	-12.2834
▁conniv	-12.2834
▁residence	-12.2834
▁societies	-12.2834
Soavi	-12.2834
eresa	-12.2834
▁Shirow	-12.2834
uerile	-12.2834
▁derivative	-12.2834
▁Visconti	-12.2834
▁beauties	-12.2834
▁dedication	-12.2834
▁exaggeration	-12.2834
▁syndication	-12.2834
▁Hoops	-12.2834
▁narcissistic	-12.2834
▁compound	-12.2834
▁Anatol	-12.2834
▁audition	-12.2834
▁columnist	-12.2834
Liberty	-12.2834
▁Largo	-12.2834
▁Peaks	-12.2834
▁Sloan	-12.2834
▁cowboy	-12.2834
▁shinobi	-12.2834
▁PLOT	-12.2834
▁determination	-12.2834
▁Austria	-12.2834
▁Durante	-12.2834
▁runaway	-12.2834
▁Chandra	-12.2834
▁Basil	-12.2834
▁Teutonic	-12.2834
▁Fantastic	-12.2834
▁cgi	-12.2834
▁drummer	-12.2834
▁subgenre	-12.2834
▁revisit	-12.2834
▁VH	-12.2834
▁maniac	-12.2834
▁Watts	-12.2834
▁lunch	-12.2834
▁Messing	-12.2834
▁Hamton	-12.2834
▁Small	-12.2834
▁stature	-12.2834
avalry	-12.2834
▁Conway	-12.2834
▁Singh	-12.2834
nanny	-12.2834
rifying	-12.2834
▁Philippine	-12.2834
▁recreation	-12.2834
▁Amelio	-12.2834
TOM	-12.2834
▁treason	-12.2834
▁Basque	-12.2834
▁Hitchens	-12.2834
▁maim	-12.2834
▁pollut	-12.2834
▁travelogue	-12.2834
▁Strangeland	-12.2834
▁Czech	-12.2834
▁appliance	-12.2834
▁plung	-12.2834
▁2008	-12.2834
▁application	-12.2834
▁unorthodox	-12.2834
▁Buffet	-12.2834
▁Sunshine	-12.2834
▁transcendent	-12.2834
▁guidance	-12.2834
▁audaci	-12.2834
gali	-12.2834
▁jarring	-12.2834
▁substitute	-12.2834
▁choral	-12.2834
▁monotonous	-12.2834
▁entity	-12.2834
▁Idol	-12.2834
▁yrs	-12.2834
Malley	-12.2834
▁Barrie	-12.2834
▁CITY	-12.2834
▁prequel	-12.2834
ORK	-12.2835
▁Boston	-12.2835
▁CBS	-12.2835
▁hound	-12.2835
▁Bunker	-12.2835
▁Cause	-12.2835
▁Begin	-12.2835
▁selves	-12.2835
▁Golf	-12.2835
▁chew	-12.2835
▁kingdom	-12.2835
▁Halton	-12.2835
▁slob	-12.2835
▁Runner	-12.2835
▁implication	-12.2835
▁MAY	-12.2835
▁Manchuria	-12.2835
▁Jade	-12.2835
▁Novak	-12.2835
▁digging	-12.2835
▁repression	-12.2835
▁serene	-12.2835
▁Stuey	-12.2835
▁Bennett	-12.2835
▁Capra	-12.2835
▁zest	-12.2835
▁Depp	-12.2835
▁Case	-12.2835
▁Stork	-12.2835
▁stereo	-12.2835
▁ballroom	-12.2835
▁felon	-12.2835
▁billboard	-12.2835
▁disability	-12.2835
▁Cheek	-12.2835
omkin	-12.2835
▁Beauty	-12.2835
▁abyss	-12.2835
▁Meyer	-12.2835
▁stack	-12.2835
FL	-12.2835
▁upbringing	-12.2835
▁Marius	-12.2835
▁Minion	-12.2835
▁Hotel	-12.2835
▁Milian	-12.2835
▁Bostock	-12.2835
▁cutouts	-12.2835
▁Garma	-12.2835
▁Morley	-12.2835
▁sixties	-12.2835
▁Gough	-12.2835
▁Helga	-12.2835
▁atheist	-12.2835
▁division	-12.2835
▁Empire	-12.2835
▁restrict	-12.2835
▁#2	-12.2835
▁swine	-12.2835
▁Lorett	-12.2835
▁resign	-12.2835
▁crane	-12.2835
▁warfare	-12.2835
▁bookstore	-12.2835
▁temptation	-12.2835
mplement	-12.2836
▁settlers	-12.2836
▁exploration	-12.2836
▁repay	-12.2836
▁Hickman	-12.2836
▁Deol	-12.2836
▁brick	-12.2836
▁Wenders	-12.2836
▁slant	-12.2836
▁KONG	-12.2836
▁Fisher	-12.2836
▁homo	-12.2836
urney	-12.2836
▁eery	-12.2836
▁attendant	-12.2836
▁fanfare	-12.2836
▁Cribb	-12.2836
▁battlefield	-12.2836
▁Nash	-12.2836
▁Brock	-12.2836
▁hassled	-12.2836
▁Tara	-12.2836
▁unstuck	-12.2836
▁terrain	-12.2836
▁NAV	-12.2836
▁Pianist	-12.2836
▁vulgarity	-12.2836
▁Vol	-12.2836
dignified	-12.2836
▁bedroom	-12.2836
▁Joline	-12.2836
▁bimbo	-12.2836
▁charlie	-12.2836
▁overhear	-12.2836
▁Revere	-12.2836
▁puss	-12.2836
▁Week	-12.2836
▁recruitment	-12.2836
full	-12.2836
▁ninety	-12.2836
EAT	-12.2836
▁Roche	-12.2836
▁palate	-12.2836
▁Sutton	-12.2836
▁egotistic	-12.2836
▁punchline	-12.2836
▁imaginable	-12.2836
▁pardon	-12.2836
▁mayhem	-12.2836
▁barren	-12.2836
▁wasteland	-12.2837
▁Ferrer	-12.2837
▁Rooney	-12.2837
▁propel	-12.2837
▁property	-12.2837
Living	-12.2837
▁Akroyd	-12.2837
▁Hackman	-12.2837
▁Rumble	-12.2837
▁Shah	-12.2837
▁surrealistic	-12.2837
assuming	-12.2837
▁data	-12.2837
▁Forbes	-12.2837
▁housewife	-12.2837
▁presum	-12.2837
▁Stein	-12.2837
▁relevance	-12.2837
▁intent	-12.2837
▁Shang	-12.2837
▁downfall	-12.2837
▁pep	-12.2837
▁giggle	-12.2837
fulness	-12.2837
▁adjust	-12.2837
▁diversion	-12.2837
▁rapper	-12.2837
▁japanes	-12.2837
two	-12.2837
▁Conan	-12.2837
▁baking	-12.2837
▁idealism	-12.2837
▁pinch	-12.2837
▁Furr	-12.2838
▁Karl	-12.2838
ouple	-12.2838
▁Howdy	-12.2838
▁kooky	-12.2838
▁Nancy	-12.2838
igi	-12.2838
▁tyranny	-12.2838
▁separatist	-12.2838
▁Flight	-12.2838
▁shotgun	-12.2838
Schmidt	-12.2838
proclaim	-12.2838
▁wig	-12.2838
▁Prime	-12.2838
▁galaxy	-12.2838
istorical	-12.2838
▁31	-12.2838
▁breezy	-12.2838
▁vain	-12.2838
▁agenda	-12.2838
▁snip	-12.2838
▁update	-12.2838
▁Argentina	-12.2838
▁adaption	-12.2838
Grandeur	-12.2838
▁gown	-12.2838
▁upsetting	-12.2838
▁absurdity	-12.2838
▁sadden	-12.2838
▁battleship	-12.2838
▁whine	-12.2838
▁Job	-12.2838
▁Berry	-12.2839
▁imprint	-12.2839
▁locke	-12.2839
▁Institute	-12.2839
▁Know	-12.2839
▁mono	-12.2839
▁confession	-12.2839
innea	-12.2839
▁irritated	-12.2839
▁Oswald	-12.2839
▁mesmerized	-12.2839
▁superstar	-12.2839
▁shrewd	-12.2839
▁Malone	-12.2839
▁evacuated	-12.2839
▁rebel	-12.2839
▁Sportin	-12.2839
▁Thanksgiving	-12.2839
▁virginal	-12.2839
▁safety	-12.2839
▁FIGHT	-12.2839
▁bowl	-12.2839
▁applies	-12.2839
1950	-12.284
Hauser	-12.284
▁payoff	-12.284
▁Gabin	-12.284
▁subway	-12.284
▁muteness	-12.284
▁shone	-12.284
▁Guest	-12.284
▁Pure	-12.284
▁frantic	-12.284
▁Zach	-12.284
▁stup	-12.284
▁surrealism	-12.284
▁hostage	-12.284
▁impal	-12.284
▁28	-12.284
▁Fowler	-12.2841
▁Miner	-12.2841
▁Patty	-12.2841
▁CON	-12.2841
▁Babe	-12.2841
▁immersive	-12.2841
▁Outside	-12.2841
▁anguish	-12.2841
▁cohere	-12.2841
uate	-12.2841
▁'90	-12.2842
▁Artist	-12.2842
▁analyz	-12.2842
▁mentality	-12.2842
▁highschool	-12.2842
▁Tai	-12.2842
Dev	-12.2842
xter	-12.2842
▁bail	-12.2842
▁idealist	-12.2842
▁Tasha	-12.2842
▁Vic	-12.2842
▁approved	-12.2842
▁Santo	-12.2842
▁retro	-12.2842
▁$9	-12.2842
endous	-12.2842
▁zip	-12.2843
TR	-12.2843
Tan	-12.2843
▁Ukraine	-12.2843
▁blacklisted	-12.2843
▁outnumbered	-12.2843
▁unexplained	-12.2843
Standard	-12.2843
▁BACK	-12.2843
▁fave	-12.2843
▁Faris	-12.2843
▁Donner	-12.2843
▁affi	-12.2843
▁Judas	-12.2843
▁miners	-12.2843
▁destructive	-12.2843
▁bald	-12.2843
▁daylight	-12.2843
▁Janis	-12.2843
▁pulse	-12.2843
▁stinker	-12.2843
▁correctness	-12.2844
▁Heroes	-12.2844
▁fearful	-12.2844
▁Christianity	-12.2844
▁Claus	-12.2844
▁scifi	-12.2844
▁denie	-12.2844
▁seduction	-12.2844
▁distinction	-12.2844
vegetable	-12.2844
▁undercurrent	-12.2844
▁womanizing	-12.2844
▁Spirited	-12.2844
▁halve	-12.2844
▁Marco	-12.2844
▁publisher	-12.2844
▁biker	-12.2845
▁gloomy	-12.2845
▁provoke	-12.2845
▁pole	-12.2845
▁KW	-12.2845
▁hardened	-12.2845
lich	-12.2845
▁Sick	-12.2846
▁Eaton	-12.2846
West	-12.2846
▁Audr	-12.2846
▁Wright	-12.2846
▁Jacob	-12.2846
▁implo	-12.2847
▁boggling	-12.2847
▁effortless	-12.2847
▁valid	-12.2847
▁stem	-12.2847
reverence	-12.2847
trawberr	-12.2847
atura	-12.2848
▁calculating	-12.2848
▁Suicid	-12.2848
▁scheming	-12.2848
▁respectfully	-12.2848
▁wade	-12.2848
▁Thomsen	-12.2848
▁yelling	-12.2848
▁Avenue	-12.2848
▁exert	-12.2848
Jer	-12.2848
▁Vittori	-12.2848
▁Einstein	-12.2848
▁Fantasy	-12.2848
▁Gypsy	-12.2848
▁Kalatozov	-12.2848
▁Thompson	-12.2848
▁smack	-12.2848
▁Bochco	-12.2848
▁Bourvil	-12.2848
▁Fujimoto	-12.2848
▁Georgia	-12.2848
▁HEAVEN	-12.2848
▁Hynkel	-12.2848
▁Istanbul	-12.2848
▁Lahaie	-12.2848
▁Lumumba	-12.2848
▁Sylvester	-12.2848
▁caliber	-12.2848
▁diploma	-12.2848
▁fictitious	-12.2848
▁rehearsal	-12.2848
▁unveil	-12.2848
▁DEAD	-12.2848
▁Icarus	-12.2848
▁OUT	-12.2848
▁conceivabl	-12.2848
▁deleted	-12.2848
▁snuff	-12.2848
▁Dublin	-12.2848
▁Maggi	-12.2848
▁Trisha	-12.2848
▁cliff	-12.2848
▁dramatization	-12.2848
▁mercy	-12.2848
▁unnerving	-12.2848
▁millionaire	-12.2848
▁Wallace	-12.2848
▁spree	-12.2848
▁Rouge	-12.2848
▁Dogtown	-12.2848
▁trance	-12.2848
▁bicycle	-12.2848
▁VICT	-12.2848
▁Faye	-12.2848
▁Contain	-12.2849
Mal	-12.2849
▁Harlow	-12.2849
▁novelty	-12.2849
▁Brite	-12.2849
▁Network	-12.2849
▁feather	-12.2849
▁Robbie	-12.2849
cense	-12.2849
▁subtext	-12.2849
▁Rarely	-12.2849
▁programming	-12.2849
latoon	-12.2849
▁coherent	-12.2849
▁virus	-12.2849
▁spout	-12.2849
▁Reitz	-12.2849
▁exposition	-12.285
▁mutilation	-12.285
▁Hendry	-12.285
▁Laugh	-12.285
▁slam	-12.285
▁Comment	-12.285
▁Marty	-12.285
▁LIVE	-12.285
▁bait	-12.285
▁Garlin	-12.285
▁Crit	-12.285
Were	-12.285
▁woes	-12.285
▁export	-12.285
▁sigh	-12.285
▁Boat	-12.285
▁suppress	-12.285
▁relay	-12.2851
▁ER	-12.2851
▁Hayes	-12.2851
tag	-12.2851
▁Apartment	-12.2851
▁employment	-12.2851
▁armor	-12.2851
▁DV	-12.2851
caust	-12.2851
▁penis	-12.2851
▁Maud	-12.2851
▁overacting	-12.2851
▁boil	-12.2852
Shalu	-12.2852
ircraft	-12.2852
▁puppy	-12.2852
TRI	-12.2852
▁playboy	-12.2852
▁scariest	-12.2852
▁Border	-12.2852
▁tribe	-12.2852
▁loopy	-12.2852
▁spoon	-12.2853
▁lightning	-12.2853
▁puzzler	-12.2853
▁ethical	-12.2853
▁JER	-12.2853
▁WO	-12.2853
▁Shaun	-12.2854
▁preference	-12.2854
▁diminished	-12.2854
▁Annette	-12.2854
▁reign	-12.2854
▁parable	-12.2854
▁collar	-12.2854
▁Him	-12.2854
▁Vice	-12.2855
▁Beast	-12.2855
▁hunger	-12.2855
▁peep	-12.2855
▁curve	-12.2855
▁irreveren	-12.2855
▁ironically	-12.2856
▁KG	-12.2856
▁leisurely	-12.2856
▁Briefly	-12.2856
▁Darko	-12.2856
▁lol	-12.2856
Evelyn	-12.2856
▁excessive	-12.2856
ecently	-12.2856
▁conveniently	-12.2856
▁medicine	-12.2856
▁escalate	-12.2856
▁heighten	-12.2857
▁Reno	-12.2857
ried	-12.2857
neous	-12.2857
▁airhead	-12.2857
ramble	-12.2857
▁trimmed	-12.2859
▁equality	-12.2859
▁collid	-12.2859
▁Becky	-12.286
ITH	-12.286
▁stamp	-12.286
▁Nance	-12.286
▁grainy	-12.286
▁Image	-12.2861
▁Morrison	-12.2861
▁KO	-12.2861
tesy	-12.2861
▁underestimated	-12.2861
▁aching	-12.2861
▁Laser	-12.2862
swapping	-12.2862
▁despise	-12.2862
▁sober	-12.2863
ph	-12.2863
▁taboo	-12.2863
magnetic	-12.2863
▁Naga	-12.2864
▁Charlot	-12.2864
▁Kier	-12.2864
▁glorif	-12.2864
▁breathless	-12.2864
▁Rio	-12.2864
▁Ritch	-12.2864
▁cave	-12.2865
estimated	-12.2865
▁enforce	-12.2865
▁Indy	-12.2866
▁irk	-12.2866
▁informative	-12.2866
▁communist	-12.2866
▁forbidd	-12.2866
▁Killer	-12.2866
▁grap	-12.2867
▁collector	-12.2867
▁Ava	-12.2867
▁/>3.	-12.2867
▁ramp	-12.2867
▁miller	-12.2867
▁beaches	-12.2867
▁mainland	-12.2868
▁commander	-12.2868
▁wince	-12.2869
▁crumbl	-12.2869
▁fancie	-12.2869
named	-12.2869
▁enchant	-12.2869
▁Mine	-12.287
▁vow	-12.287
▁Sven	-12.287
▁1946)	-12.287
▁pegg	-12.287
▁Visually	-12.287
▁consol	-12.2871
▁discoveries	-12.2871
▁Enem	-12.2871
▁unjust	-12.2871
▁Delon	-12.2871
▁Strike	-12.2871
▁pierc	-12.2871
nate	-12.2872
DY	-12.2872
▁meandering	-12.2872
▁fascinati	-12.2873
▁Domin	-12.2873
▁supportive	-12.2873
▁contemplate	-12.2873
▁bigoted	-12.2874
▁harp	-12.2874
▁Got	-12.2874
▁Odessa	-12.2874
▁efficient	-12.2874
▁Bullitt	-12.2874
▁Search	-12.2874
▁russian	-12.2874
▁Gerard	-12.2874
▁Dassin	-12.2874
▁Babette	-12.2874
▁gla	-12.2874
▁Third	-12.2874
▁ratio	-12.2874
▁Goodbye	-12.2874
▁Rollin	-12.2875
▁Crash	-12.2875
▁weirdness	-12.2875
▁blessed	-12.2875
▁extracted	-12.2875
dental	-12.2875
▁Marcus	-12.2875
▁Stop	-12.2876
▁Universal	-12.2876
▁Cathy	-12.2877
▁raven	-12.2878
▁sickness	-12.2878
▁Ska	-12.2878
▁Fill	-12.2878
▁Relativ	-12.2879
▁mule	-12.288
▁effectiveness	-12.2881
▁chaser	-12.2881
▁Happy	-12.2881
ée	-12.2881
▁Spy	-12.2883
▁Gors	-12.2883
▁FIN	-12.2883
YM	-12.2883
▁Gray	-12.2884
▁Pass	-12.2884
▁prow	-12.2884
▁bullies	-12.2885
▁Ahead	-12.2885
▁Keen	-12.2885
▁marrie	-12.2885
▁Martel	-12.2885
▁fascist	-12.2886
Das	-12.2886
▁continuity	-12.2886
▁Ok	-12.2887
▁75	-12.2887
▁intentionally	-12.2887
Into	-12.2887
▁afore	-12.2888
Serg	-12.2888
▁hairstyles	-12.2889
▁Effects	-12.2889
▁cohorts	-12.2889
▁fragments	-12.2889
▁captivates	-12.2889
▁spunk	-12.2889
▁alcoholism	-12.2889
▁UN	-12.2889
▁contestants	-12.2889
▁bung	-12.289
▁lash	-12.289
▁SF	-12.289
▁shadowy	-12.289
▁Boxer	-12.289
▁climaxes	-12.2891
▁BL	-12.2891
▁Rated	-12.2891
▁overlay	-12.2892
▁altered	-12.2892
▁cramm	-12.2892
doppelganger	-12.2892
▁Walt	-12.2893
▁Hence	-12.2893
▁imply	-12.2893
▁screwed	-12.2893
▁supp	-12.2895
▁Wire	-12.2895
▁stimulate	-12.2895
▁assignment	-12.2895
aside	-12.2896
mino	-12.2896
mila	-12.2897
▁poisoning	-12.2897
▁binding	-12.2897
▁Buy	-12.2897
▁exceeding	-12.2897
1988	-12.2897
▁strangeness	-12.2897
▁Cord	-12.2898
rchitecture	-12.2898
▁chart	-12.2899
▁thereafter	-12.2899
▁Strangely	-12.2899
▁circle	-12.29
▁Swedes	-12.29
alla	-12.29
▁seething	-12.29
▁Johanna	-12.29
▁apocalyptic	-12.29
▁thunder	-12.2901
▁Flori	-12.2901
▁decorat	-12.2901
▁Wend	-12.2901
▁Hare	-12.2901
▁candid	-12.2901
Riverdance	-12.2901
▁wannabe	-12.2903
▁CIA	-12.2903
IVE	-12.2903
oze	-12.2903
▁bootlegge	-12.2904
▁Lean	-12.2904
▁promotion	-12.2905
ounding	-12.2906
NTER	-12.2906
▁Leon	-12.2906
▁heavier	-12.2906
▁begging	-12.2907
▁sweaty	-12.2907
▁fleet	-12.2907
▁tease	-12.2907
▁Joanne	-12.2908
▁repaired	-12.2908
ttack	-12.2908
-11	-12.2909
▁Stre	-12.2909
▁healing	-12.2909
▁Bechar	-12.2909
▁Rex	-12.2909
mart	-12.291
▁Jar	-12.291
▁recur	-12.291
▁grimy	-12.291
▁useless	-12.2912
▁pursuer	-12.2912
AMA	-12.2913
▁incorporat	-12.2913
▁flatter	-12.2913
▁bells	-12.2913
▁sincerely	-12.2914
▁bath	-12.2914
▁Fell	-12.2914
▁laborator	-12.2915
▁bleed	-12.2915
▁comers	-12.2916
▁Seli	-12.2916
-10	-12.2917
xel	-12.2917
▁submitt	-12.2919
Spoilers	-12.2919
▁Jose	-12.2919
▁lapse	-12.2919
▁solved	-12.292
▁demo	-12.2921
▁Cornel	-12.2922
▁Romane	-12.2923
▁tenth	-12.2923
watching	-12.2923
▁versa	-12.2924
▁consumer	-12.2924
▁Cut	-12.2924
▁Edit	-12.2924
▁Tall	-12.2925
uff	-12.2925
▁eg	-12.2925
▁Interestingly	-12.2925
mont	-12.2925
fights	-12.2926
Droid	-12.2926
bands	-12.2926
▁Heaven	-12.2927
▁hunk	-12.2927
▁instill	-12.2928
▁farmer	-12.2928
▁enormously	-12.2929
▁spared	-12.293
IBLE	-12.293
Fresh	-12.293
▁Compar	-12.2931
▁searches	-12.2932
ewer	-12.2933
ines	-12.2933
▁Juan	-12.2934
prit	-12.2935
ymphon	-12.2935
▁Karen	-12.2935
▁Belle	-12.2935
▁1971.	-12.2936
▁fled	-12.2936
▁SC	-12.2936
▁:-).	-12.2936
▁refugee	-12.2936
▁VAL	-12.2936
▁shri	-12.2938
▁Grahame	-12.2938
tentimes	-12.2939
▁gras	-12.2939
haven	-12.294
lloy	-12.294
▁developer	-12.2941
▁defeated	-12.2942
▁Por	-12.2942
▁pastor	-12.2942
▁decor	-12.2943
▁astonishingly	-12.2943
▁EL	-12.2944
BOOK	-12.2944
rending	-12.2944
dominant	-12.2944
▁switched	-12.2946
Madge	-12.2946
enact	-12.2947
▁tools	-12.2947
seas	-12.2947
▁painter	-12.2947
▁Fun	-12.2948
▁Cup	-12.2949
▁organiz	-12.2949
▁henchm	-12.2949
▁reserve	-12.295
Tully	-12.2951
fusion	-12.2951
▁Stiller	-12.2952
▁Inside	-12.2953
pm	-12.2953
▁Papa	-12.2953
▁fuel	-12.2953
leng	-12.2955
kong	-12.2955
once	-12.2956
OLL	-12.2956
▁Bring	-12.2958
▁referenced	-12.296
▁Cag	-12.2961
▁Won	-12.2962
▁howling	-12.2963
▁distru	-12.2963
Animal	-12.2964
▁info	-12.2968
▁spo	-12.2969
kilter	-12.297
▁fading	-12.2971
▁varies	-12.2973
▁coat	-12.2976
emy	-12.2977
thought	-12.2977
Boing	-12.2978
▁glid	-12.2978
▁Paula	-12.2978
▁faded	-12.298
ooling	-12.2981
Posse	-12.2984
singer	-12.2984
▁censors	-12.2985
▁quibbles	-12.2985
▁acrobatics	-12.2985
▁troops	-12.2985
▁instruments	-12.2985
▁ventures	-12.2985
▁blades	-12.2985
▁bananas	-12.2985
▁snails	-12.2986
▁archives	-12.2986
▁Grac	-12.2987
▁entertainer	-12.2989
▁underline	-12.299
▁moreover	-12.2992
talk	-12.2992
ONLY	-12.2994
Crawl	-12.2995
enz	-12.2995
atus	-12.2995
1.5	-12.2996
▁bombed	-12.2998
▁16-	-12.3
▁dispose	-12.3001
▁exquisitely	-12.3002
▁mislead	-12.3003
▁emoti	-12.3004
rich	-12.3005
▁ghostly	-12.3006
▁pic	-12.3007
▁rake	-12.3007
god	-12.3008
Yep	-12.3008
▁condemned	-12.3009
▁Noon	-12.3009
▁researched	-12.3009
Har	-12.301
▁fixed	-12.301
▁revolutioniz	-12.3012
Clever	-12.3013
▁heave	-12.3015
▁dodge	-12.3015
éd	-12.3015
▁togetherness	-12.3016
gentlemen	-12.3017
▁tackl	-12.3019
aunting	-12.3021
▁implant	-12.3023
▁flirting	-12.3023
▁ranger	-12.3025
Niro	-12.3025
partnership	-12.3025
En	-12.3025
▁spat	-12.3026
ivalen	-12.3026
eri	-12.3027
▁wisely	-12.3029
▁dimwit	-12.303
▁flowed	-12.303
sort	-12.3031
▁Bowl	-12.3033
▁Ivan	-12.3033
Anatomy	-12.3033
▁taint	-12.3034
▁grass	-12.3034
▁Driv	-12.3035
oit	-12.3035
▁arouse	-12.3036
oo	-12.3036
▁observed	-12.3038
▁Vo	-12.3039
71	-12.3039
▁Faces	-12.3042
ovsk	-12.3043
▁separately	-12.3044
▁Spoilers	-12.3052
inister	-12.3052
▁Played	-12.3054
▁lifelike	-12.3054
umn	-12.3055
▁Were	-12.3055
▁strengthen	-12.3056
gorilla	-12.3057
tious	-12.3061
ax	-12.3067
▁Hole	-12.3072
romised	-12.3073
▁Son	-12.3076
▁Says	-12.3081
▁drea	-12.3082
▁Laurent	-12.3082
cache	-12.3083
Jo	-12.3083
▁Kay	-12.3084
▁(4	-12.3084
▁Dolls	-12.3085
▁outline	-12.3085
▁patrons	-12.3085
▁protests	-12.3085
▁gimmicks	-12.3085
▁pajamas	-12.3085
▁civilizations	-12.3085
▁mobsters	-12.3085
▁Crews	-12.3085
▁proceeds	-12.3085
▁feats	-12.3085
▁contributions	-12.3085
▁nerds	-12.3085
▁exploits	-12.3086
▁snakes	-12.3086
▁towers	-12.3086
easley	-12.3087
▁promised	-12.3089
▁golfer	-12.309
▁documents	-12.309
!!"	-12.3091
alth	-12.3091
VI	-12.3093
▁shakes	-12.3099
▁procreat	-12.3101
▁parking	-12.3103
▁replay	-12.3103
▁trains	-12.3103
▁whore	-12.3104
▁rewards	-12.3104
▁Press	-12.3106
LINE	-12.3107
pay	-12.3107
ustralian	-12.3109
▁1994.	-12.3114
hic	-12.3115
▁Ball	-12.3117
65	-12.3121
▁Seek	-12.3121
▁sooooooooooo	-12.3124
▁div	-12.3126
▁skirts	-12.3127
▁Beal	-12.3129
minutes	-12.313
▁Sit	-12.313
▁scu	-12.3132
MC	-12.3134
khar	-12.3135
NH	-12.3135
▁workout	-12.3136
ongs	-12.314
budgeted	-12.3146
▁chap	-12.3147
▁enclos	-12.3151
▁responsibilit	-12.3152
▁lure	-12.3152
mok	-12.3153
ayed	-12.3155
rez	-12.3155
▁gambler	-12.3157
olume	-12.3157
▁aristocrat	-12.3158
ternity	-12.3165
95	-12.3165
▁independently	-12.3167
▁invad	-12.3168
")?	-12.317
mí	-12.3174
▁Truth	-12.3175
cam	-12.3176
▁spelling	-12.3177
▁gathering	-12.3179
fed	-12.3179
▁Chann	-12.3182
▁Farr	-12.3183
▁3:	-12.3185
wallow	-12.3186
▁cages	-12.3186
▁Estes	-12.3186
▁knees	-12.3186
WAT	-12.3186
▁ballads	-12.3186
▁requests	-12.3186
▁VCRs	-12.3186
▁apples	-12.3187
▁junkies	-12.3189
idt	-12.319
▁lads	-12.319
▁recommendations	-12.3191
fests	-12.3191
▁worms	-12.3191
▁admirers	-12.3192
▁avert	-12.3192
▁madly	-12.3194
▁Mick	-12.3202
▁ge	-12.3208
waiting	-12.3213
▁gi	-12.3216
▁grudg	-12.3218
▁slum	-12.3221
▁descen	-12.3227
▁dreamy	-12.3229
mature	-12.323
ixie	-12.323
▁pitching	-12.323
▁marrying	-12.3232
▁juggl	-12.3232
woods	-12.3237
ustav	-12.3239
ask	-12.3239
makes	-12.324
othed	-12.3241
▁preserv	-12.3241
iggins	-12.3243
izard	-12.3243
▁Cam	-12.3244
▁Ross	-12.3247
EAL	-12.3248
western	-12.3254
▁!!!!	-12.3258
Elias	-12.3261
▁/>8	-12.3268
▁aesthetical	-12.3268
▁Br	-12.3272
▁picky	-12.3282
▁rags	-12.3289
▁idols	-12.3289
▁poems	-12.3289
▁birds	-12.3289
▁spouses	-12.3289
▁predecessors	-12.3289
▁kidnaps	-12.3289
▁drawings	-12.3289
▁Hawks	-12.3292
▁conflicting	-12.3293
BLE	-12.3293
▁screenwriters	-12.3294
sure	-12.3298
▁grounded	-12.3299
▁Commo	-12.3299
bit	-12.33
▁chast	-12.33
▁Eng	-12.3305
▁moron	-12.3306
▁texts	-12.3316
▁Cron	-12.3329
haggy	-12.3331
Sonn	-12.3336
▁confrontation	-12.3337
anski	-12.3337
▁travest	-12.3339
▁je	-12.334
cess	-12.3344
Oddly	-12.3347
▁flicker	-12.3347
▁violently	-12.335
▁females	-12.3351
▁dimensional	-12.3352
▁moods	-12.3353
ieve	-12.3361
garde	-12.3364
luck	-12.3366
▁impresse	-12.3367
pulled	-12.3372
alogue	-12.3373
ndependent	-12.3375
steps	-12.3376
▁bow	-12.3378
▁presenter	-12.3388
fulfillment	-12.3392
▁strings	-12.3392
▁masks	-12.3393
▁gigs	-12.3393
▁suspicions	-12.3393
▁intentions	-12.3394
▁gangsters	-12.3394
▁boo	-12.3394
▁Mean	-12.3402
Ale	-12.3406
▁coy	-12.3411
▁Kar	-12.3414
▁Ze	-12.3417
▁westerner	-12.342
Am	-12.342
ingham	-12.3421
llen	-12.3426
▁fre	-12.343
Tien	-12.3432
▁listed	-12.3435
misses	-12.3438
arian	-12.3442
▁Sy	-12.3444
▁Pian	-12.345
▁4)	-12.3452
▁romances	-12.3454
▁Dai	-12.3456
slow	-12.3457
▁Ni	-12.3457
▁groov	-12.3458
batch	-12.3461
creaming	-12.3464
sco	-12.3464
oreover	-12.347
▁cad	-12.3474
▁Move	-12.3475
▁Cas	-12.3481
erewolves	-12.3481
▁cam	-12.3485
▁reels	-12.3495
ob	-12.3495
▁objectives	-12.3498
▁trials	-12.3499
▁Phillips	-12.3499
▁bullets	-12.3499
▁pals	-12.3506
atched	-12.3507
▁foes	-12.3509
▁Tae	-12.3511
▁heady	-12.3514
▁Put	-12.3518
▁Chang	-12.3522
▁Ye	-12.3524
atter	-12.3524
▁cosm	-12.3528
▁Hori	-12.353
Se	-12.3537
▁travell	-12.3544
imal	-12.3554
▁worries	-12.3558
▁notions	-12.356
▁Michel	-12.3566
ingle	-12.3566
▁um	-12.357
▁Yo	-12.357
▁channell	-12.3576
▁7,	-12.3577
RED	-12.3584
MENT	-12.359
▁embodi	-12.3591
trick	-12.3596
▁cheats	-12.3601
▁pages	-12.3605
▁transitions	-12.3605
ocks	-12.361
▁blaz	-12.361
▁sparks	-12.3616
▁hippies	-12.3622
▁Monte	-12.3625
▁Gets	-12.3631
ACE	-12.3638
▁Davi	-12.3643
4/10	-12.3648
tique	-12.3653
//	-12.3653
▁questioned	-12.3655
stirring	-12.3661
▁smokes	-12.3664
itation	-12.3665
▁existentialis	-12.3667
▁Spi	-12.3672
▁wean	-12.3677
▁designer	-12.3689
ranch	-12.3693
etta	-12.3696
▁pans	-12.3698
▁Calls	-12.3699
▁humiliat	-12.37
gram	-12.3705
invincib	-12.3706
▁Nel	-12.3706
▁/>9	-12.3709
[...]
